{
  "version": "1.0",
  "truncation": null,
  "padding": null,
  "added_tokens": [
    {
      "id": 0,
      "content": "[PAD]",
      "single_word": false,
      "lstrip": false,
      "rstrip": false,
      "normalized": false,
      "special": true
    },
    {
      "id": 1,
      "content": "[BOS]",
      "single_word": false,
      "lstrip": false,
      "rstrip": false,
      "normalized": false,
      "special": true
    },
    {
      "id": 2,
      "content": "[EOS]",
      "single_word": false,
      "lstrip": false,
      "rstrip": false,
      "normalized": false,
      "special": true
    },
    {
      "id": 3,
      "content": "[UNK]",
      "single_word": false,
      "lstrip": false,
      "rstrip": false,
      "normalized": false,
      "special": true
    },
    {
      "id": 4,
      "content": "<ING>",
      "single_word": false,
      "lstrip": false,
      "rstrip": false,
      "normalized": false,
      "special": true
    },
    {
      "id": 5,
      "content": "<REC>",
      "single_word": false,
      "lstrip": false,
      "rstrip": false,
      "normalized": false,
      "special": true
    },
    {
      "id": 6,
      "content": "<TITLE>",
      "single_word": false,
      "lstrip": false,
      "rstrip": false,
      "normalized": false,
      "special": true
    },
    {
      "id": 7,
      "content": "<STEP>",
      "single_word": false,
      "lstrip": false,
      "rstrip": false,
      "normalized": false,
      "special": true
    }
  ],
  "normalizer": {
    "type": "Sequence",
    "normalizers": [
      {
        "type": "NFKC"
      },
      {
        "type": "Lowercase"
      }
    ]
  },
  "pre_tokenizer": {
    "type": "ByteLevel",
    "add_prefix_space": false,
    "trim_offsets": true,
    "use_regex": true
  },
  "post_processor": {
    "type": "ByteLevel",
    "add_prefix_space": true,
    "trim_offsets": false,
    "use_regex": true
  },
  "decoder": {
    "type": "ByteLevel",
    "add_prefix_space": true,
    "trim_offsets": true,
    "use_regex": true
  },
  "model": {
    "type": "BPE",
    "dropout": null,
    "unk_token": "[UNK]",
    "continuing_subword_prefix": null,
    "end_of_word_suffix": null,
    "fuse_unk": false,
    "byte_fallback": false,
    "ignore_merges": false,
    "vocab": {
      "[PAD]": 0,
      "[BOS]": 1,
      "[EOS]": 2,
      "[UNK]": 3,
      "<ING>": 4,
      "<REC>": 5,
      "<TITLE>": 6,
      "<STEP>": 7,
      "!": 8,
      "\"": 9,
      "#": 10,
      "$": 11,
      "%": 12,
      "&": 13,
      "'": 14,
      "(": 15,
      ")": 16,
      "*": 17,
      "+": 18,
      ",": 19,
      "-": 20,
      ".": 21,
      "/": 22,
      "0": 23,
      "1": 24,
      "2": 25,
      "3": 26,
      "4": 27,
      "5": 28,
      "6": 29,
      "7": 30,
      "8": 31,
      "9": 32,
      ":": 33,
      ";": 34,
      "<": 35,
      "=": 36,
      ">": 37,
      "?": 38,
      "@": 39,
      "[": 40,
      "\\": 41,
      "]": 42,
      "^": 43,
      "_": 44,
      "`": 45,
      "a": 46,
      "b": 47,
      "c": 48,
      "d": 49,
      "e": 50,
      "f": 51,
      "g": 52,
      "h": 53,
      "i": 54,
      "j": 55,
      "k": 56,
      "l": 57,
      "m": 58,
      "n": 59,
      "o": 60,
      "p": 61,
      "q": 62,
      "r": 63,
      "s": 64,
      "t": 65,
      "u": 66,
      "v": 67,
      "w": 68,
      "x": 69,
      "y": 70,
      "z": 71,
      "{": 72,
      "|": 73,
      "}": 74,
      "~": 75,
      "¡": 76,
      "¢": 77,
      "£": 78,
      "¤": 79,
      "¥": 80,
      "¦": 81,
      "§": 82,
      "¨": 83,
      "©": 84,
      "ª": 85,
      "«": 86,
      "¬": 87,
      "®": 88,
      "¯": 89,
      "°": 90,
      "±": 91,
      "²": 92,
      "³": 93,
      "´": 94,
      "µ": 95,
      "¶": 96,
      "·": 97,
      "¸": 98,
      "¹": 99,
      "º": 100,
      "»": 101,
      "¼": 102,
      "½": 103,
      "¾": 104,
      "¿": 105,
      "Â": 106,
      "Ã": 107,
      "Ä": 108,
      "Å": 109,
      "Æ": 110,
      "Ç": 111,
      "È": 112,
      "Ì": 113,
      "Î": 114,
      "Ï": 115,
      "Ð": 116,
      "Ñ": 117,
      "Ó": 118,
      "×": 119,
      "Ø": 120,
      "Ù": 121,
      "Û": 122,
      "à": 123,
      "á": 124,
      "â": 125,
      "ã": 126,
      "ä": 127,
      "å": 128,
      "æ": 129,
      "ç": 130,
      "è": 131,
      "é": 132,
      "ê": 133,
      "ë": 134,
      "ì": 135,
      "í": 136,
      "ï": 137,
      "ð": 138,
      "Ā": 139,
      "ā": 140,
      "ă": 141,
      "Ĉ": 142,
      "ĉ": 143,
      "Ċ": 144,
      "Đ": 145,
      "đ": 146,
      "Ē": 147,
      "Ĕ": 148,
      "Ę": 149,
      "ę": 150,
      "ě": 151,
      "Ġ": 152,
      "ġ": 153,
      "Ģ": 154,
      "ģ": 155,
      "Ĥ": 156,
      "ĥ": 157,
      "Ħ": 158,
      "ħ": 159,
      "Ĩ": 160,
      "ĩ": 161,
      "Ī": 162,
      "ī": 163,
      "Ĭ": 164,
      "ĭ": 165,
      "Į": 166,
      "į": 167,
      "İ": 168,
      "ı": 169,
      "Ĳ": 170,
      "ĳ": 171,
      "Ĵ": 172,
      "ĵ": 173,
      "Ķ": 174,
      "ķ": 175,
      "ĸ": 176,
      "Ĺ": 177,
      "ĺ": 178,
      "Ļ": 179,
      "ļ": 180,
      "Ľ": 181,
      "ľ": 182,
      "Ŀ": 183,
      "ŀ": 184,
      "Ł": 185,
      "ł": 186,
      "Ń": 187,
      "in": 188,
      "Ġt": 189,
      "te": 190,
      "Ġs": 191,
      "Ġa": 192,
      "Ġc": 193,
      "re": 194,
      "he": 195,
      "Ġb": 196,
      "le": 197,
      "Ġp": 198,
      "ste": 199,
      "Ġo": 200,
      "step": 201,
      "Ġm": 202,
      "nd": 203,
      "it": 204,
      "er": 205,
      "ing": 206,
      "il": 207,
      "Ġand": 208,
      "Ġw": 209,
      "Ġthe": 210,
      "ar": 211,
      "Ġf": 212,
      "Ġto": 213,
      "on": 214,
      "ou": 215,
      "Ġin": 216,
      "an": 217,
      "Ġ1": 218,
      "es": 219,
      "ic": 220,
      "at": 221,
      "al": 222,
      "Ġco": 223,
      "itle": 224,
      "en": 225,
      "Ġd": 226,
      "ed": 227,
      "ro": 228,
      "la": 229,
      "or": 230,
      "ut": 231,
      "Ġg": 232,
      "as": 233,
      "Ġ<": 234,
      "Ġtitle": 235,
      "Ġu": 236,
      "ter": 237,
      "ak": 238,
      "is": 239,
      "Ġon": 240,
      "Ġch": 241,
      "ith": 242,
      "Ġwith": 243,
      "Ġ2": 244,
      "Ġ3": 245,
      "Ġre": 246,
      "ve": 247,
      "our": 248,
      "Ġe": 249,
      "pp": 250,
      "Ġl": 251,
      "dd": 252,
      "ce": 253,
      "ow": 254,
      "Ġun": 255,
      "Ġst": 256,
      "ra": 257,
      "Ġsal": 258,
      "ot": 259,
      "til": 260,
      "ge": 261,
      "Ġh": 262,
      "ll": 263,
      "Ġpe": 264,
      "am": 265,
      "Ġmin": 266,
      "ute": 267,
      "Ġmi": 268,
      "Ġadd": 269,
      "Ġuntil": 270,
      "Ġmix": 271,
      "Ġfor": 272,
      "Ġof": 273,
      "Ġcoo": 274,
      "gar": 275,
      "ch": 276,
      "ver": 277,
      "Ġbe": 278,
      "ly": 279,
      "Ġminute": 280,
      "to": 281,
      "Ġsu": 282,
      "Ġ4": 283,
      "Ġminutes": 284,
      "Ġsalt": 285,
      "ick": 286,
      "gh": 287,
      "ion": 288,
      "rec": 289,
      "Ġsp": 290,
      "ad": 291,
      "ine": 292,
      "Ġche": 293,
      "ir": 294,
      "Ġsa": 295,
      "ake": 296,
      "title": 297,
      "st": 298,
      "Ġhe": 299,
      "Ġcook": 300,
      "Ġbut": 301,
      "pper": 302,
      "Ġle": 303,
      "Ġsugar": 304,
      "Ġor": 305,
      "Ġpepper": 306,
      "um": 307,
      "Ġse": 308,
      "ice": 309,
      "ri": 310,
      "Ġ5": 311,
      "ry": 312,
      "uce": 313,
      "Ġn": 314,
      "Ġfl": 315,
      "Ġbutter": 316,
      "ese": 317,
      "Ġinto": 318,
      "red": 319,
      "Ġcheese": 320,
      "gg": 321,
      "Ġbro": 322,
      "Ġcre": 323,
      "Ġth": 324,
      "ck": 325,
      "Ġegg": 326,
      "Ġheat": 327,
      "Ġj": 328,
      "co": 329,
      "Ġwa": 330,
      "ato": 331,
      "id": 332,
      "icken": 333,
      "Ġover": 334,
      "Ġonion": 335,
      "Ġstir": 336,
      "Ġcream": 337,
      "ure": 338,
      "Ġy": 339,
      "ur": 340,
      "Ġsauce": 341,
      "mo": 342,
      "Ġoil": 343,
      "Ġwh": 344,
      "Ġflour": 345,
      "Ġchicken": 346,
      "ts": 347,
      "Ġwater": 348,
      "Ġv": 349,
      "Ġr": 350,
      "el": 351,
      "ss": 352,
      "lic": 353,
      "igh": 354,
      "Ġ6": 355,
      "im": 356,
      "Ġpla": 357,
      "Ġpan": 358,
      "ill": 359,
      "ast": 360,
      "ble": 361,
      "Ġso": 362,
      "Ġgar": 363,
      "ven": 364,
      "Ġbow": 365,
      "Ġbowl": 366,
      "ate": 367,
      "her": 368,
      "ilk": 369,
      "ture": 370,
      "Ġcom": 371,
      "et": 372,
      "wn": 373,
      "Ġju": 374,
      "ru": 375,
      "all": 376,
      "read": 377,
      "Ġbak": 378,
      "ip": 379,
      "Ġsh": 380,
      "qu": 381,
      "Ġmixture": 382,
      "Ġbrown": 383,
      "Ġcho": 384,
      "get": 385,
      "Ġser": 386,
      "Ġro": 387,
      "ie": 388,
      "out": 389,
      "Ġgarlic": 390,
      "Ġbake": 391,
      "Ġit": 392,
      "Ġat": 393,
      "li": 394,
      "Ġmilk": 395,
      "Ġpre": 396,
      "sh": 397,
      "Ġbaking": 398,
      "Ġcu": 399,
      "Ġpot": 400,
      "se": 401,
      "Ġgre": 402,
      "Ġall": 403,
      "ough": 404,
      "Ġ(": 405,
      "Ġeggs": 406,
      "ell": 407,
      "Ġ8": 408,
      "Ġ7": 409,
      "Ġab": 410,
      "Ġmu": 411,
      "Ġplace": 412,
      "ight": 413,
      "Ġoven": 414,
      "ish": 415,
      "ol": 416,
      "Ġ10": 417,
      "Ġfro": 418,
      "Ġis": 419,
      "if": 420,
      "ach": 421,
      "Ġtom": 422,
      "Ġk": 423,
      "edi": 424,
      "ap": 425,
      "mon": 426,
      "Ġtomato": 427,
      "Ġabout": 428,
      "ring": 429,
      "oil": 430,
      "able": 431,
      "Ġtop": 432,
      "Ġwhi": 433,
      "Ġcomb": 434,
      "Ġte": 435,
      "oon": 436,
      "me": 437,
      "Ġcut": 438,
      "Ġlar": 439,
      "ide": 440,
      "Ġred": 441,
      "Ġlarge": 442,
      "ien": 443,
      "Ġ9": 444,
      "Ġpar": 445,
      "ain": 446,
      "illa": 447,
      "der": 448,
      "Ġmedi": 449,
      "Ġas": 450,
      "ay": 451,
      "Ġmedium": 452,
      "anilla": 453,
      "Ġvanilla": 454,
      "Ġremo": 455,
      "late": 456,
      "Ġing": 457,
      "Ġjuice": 458,
      "Ġingred": 459,
      "ran": 460,
      "Ġingredien": 461,
      "Ġpow": 462,
      "Ġfrom": 463,
      "Ġpour": 464,
      "Ġingredients": 465,
      "Ġme": 466,
      "Ġcup": 467,
      "Ġcombine": 468,
      "Ġpie": 469,
      "Ġlemon": 470,
      "oo": 471,
      "Ġwell": 472,
      "Ġpotato": 473,
      "Ġboil": 474,
      "Ġsk": 475,
      "Ġmar": 476,
      "Ġan": 477,
      "Ġremove": 478,
      "ser": 479,
      "ted": 480,
      "ore": 481,
      "colate": 482,
      "ff": 483,
      "ber": 484,
      "Ġbread": 485,
      "Ġserve": 486,
      "Ġchocolate": 487,
      "Ġoli": 488,
      "Ġthen": 489,
      "nder": 490,
      "ille": 491,
      "Ġba": 492,
      "Ġpowder": 493,
      "rn": 494,
      "Ġcover": 495,
      "Ġcake": 496,
      "Â°": 497,
      "ink": 498,
      "pple": 499,
      "Ġcool": 500,
      "Ġve": 501,
      "ger": 502,
      "Ġla": 503,
      "Ġcorn": 504,
      "Ġde": 505,
      "Ġ35": 506,
      "one": 507,
      "Ġcr": 508,
      "Ġlet": 509,
      "Ġgreen": 510,
      "Ġhour": 511,
      "ard": 512,
      "om": 513,
      "Ġsl": 514,
      "gether": 515,
      "oup": 516,
      "Ġtogether": 517,
      "ces": 518,
      "con": 519,
      "th": 520,
      "Ġeach": 521,
      "rain": 522,
      "ood": 523,
      "Ġyou": 524,
      "Ġspr": 525,
      "Ġrem": 526,
      "old": 527,
      "Ġolive": 528,
      "Ġwhite": 529,
      "Ġremain": 530,
      "imm": 531,
      "Ġshe": 532,
      "Ġsoup": 533,
      "Ġal": 534,
      "ant": 535,
      "Ġ350": 536,
      "Ġremaining": 537,
      "Ġcon": 538,
      "Ġtur": 539,
      "ves": 540,
      "ason": 541,
      "aste": 542,
      "ct": 543,
      "Ġsprink": 544,
      "Ġrice": 545,
      "Ġseason": 546,
      "ables": 547,
      "Ġcar": 548,
      "Ġra": 549,
      "mall": 550,
      "age": 551,
      "ent": 552,
      "poon": 553,
      "Ġset": 554,
      "Ġif": 555,
      "we": 556,
      "ef": 557,
      "heat": 558,
      "Ġsprinkle": 559,
      "Ġveget": 560,
      "ightly": 561,
      "oth": 562,
      "Ġble": 563,
      "Ġbean": 564,
      "Ġ15": 565,
      "Ġsalad": 566,
      "ole": 567,
      "and": 568,
      "Ġfre": 569,
      "ies": 570,
      "Ġmel": 571,
      "Ġbeat": 572,
      "Ġdough": 573,
      "Ġhal": 574,
      "are": 575,
      "ving": 576,
      "Ġare": 577,
      "Ġbeef": 578,
      "Ġgr": 579,
      "Ġ12": 580,
      "illet": 581,
      "inn": 582,
      "Ġbla": 583,
      "Ġmeat": 584,
      "Ġnut": 585,
      "ime": 586,
      "Ġbre": 587,
      "inch": 588,
      "Ġroll": 589,
      "un": 590,
      "ten": 591,
      "Ġblack": 592,
      "Ġcan": 593,
      "gre": 594,
      "immer": 595,
      "Ġste": 596,
      "Ġdry": 597,
      "Ġlow": 598,
      "Ġstirring": 599,
      "ound": 600,
      "mp": 601,
      "Ġ30": 602,
      "Ġgra": 603,
      "Ġsimmer": 604,
      "Ġli": 605,
      "Ġskillet": 606,
      "ke": 607,
      "Ġsmall": 608,
      "Ġsmo": 609,
      "Ġmush": 610,
      "Ġdish": 611,
      "Ġpast": 612,
      "room": 613,
      "Ġex": 614,
      "Ġhot": 615,
      "Ġdrain": 616,
      ").": 617,
      "iz": 618,
      "Ġmushroom": 619,
      "Ġhalf": 620,
      "Ġup": 621,
      "ork": 622,
      "fri": 623,
      "Ġout": 624,
      "Ġcrum": 625,
      "us": 626,
      "ise": 627,
      "ally": 628,
      "Ġpotatoes": 629,
      "Ġpap": 630,
      "Ġonions": 631,
      "Ġrefri": 632,
      "Ġpreheat": 633,
      "Ġput": 634,
      "Ġdi": 635,
      "Ġce": 636,
      "lo": 637,
      "Ġ11": 638,
      "Ġbring": 639,
      "Ġvine": 640,
      "amon": 641,
      "Ġcru": 642,
      "ave": 643,
      "innamon": 644,
      "Ġvinegar": 645,
      "Ġcas": 646,
      "Ġspread": 647,
      "Ġapple": 648,
      "Ġcinnamon": 649,
      "Ġ13": 650,
      "Ġ20": 651,
      "ee": 652,
      "bs": 653,
      "Ġrefriger": 654,
      "'s": 655,
      "Ġpu": 656,
      "Ġblend": 657,
      "ated": 658,
      "ley": 659,
      "berry": 660,
      "che": 661,
      "ld": 662,
      "Ġmo": 663,
      "Ġfla": 664,
      "Ġsod": 665,
      "Ġtender": 666,
      "art": 667,
      "ue": 668,
      "Ġlay": 669,
      "Ġyour": 670,
      "Ġturn": 671,
      "Ġoran": 672,
      "ile": 673,
      "Ġpo": 674,
      "Ġserving": 675,
      "Ġne": 676,
      "Ġsour": 677,
      "Ġcele": 678,
      "Ġswe": 679,
      "Ġus": 680,
      "Ġcelery": 681,
      "stard": 682,
      "pan": 683,
      "Ġhours": 684,
      "cess": 685,
      "Ġcra": 686,
      "Ġsqu": 687,
      "Ġpars": 688,
      "ash": 689,
      "ag": 690,
      "Ġpro": 691,
      "Ġen": 692,
      "ers": 693,
      "serole": 694,
      "Ġcasserole": 695,
      "Ġwhe": 696,
      "Ġdegre": 697,
      "Ġspoon": 698,
      "isk": 699,
      "Ġz": 700,
      "Ġchil": 701,
      "ablespoon": 702,
      "Ġgreas": 703,
      "Ġtomatoes": 704,
      "ab": 705,
      "Ġsmooth": 706,
      "Ġtablespoon": 707,
      "Ġparsley": 708,
      "pped": 709,
      "Ġmay": 710,
      "Ġmake": 711,
      "Ġaside": 712,
      "Ġchip": 713,
      "Ġsaucepan": 714,
      "Ġcarro": 715,
      "pe": 716,
      "Ġbacon": 717,
      "Ġwhen": 718,
      "Ġsheet": 719,
      "Ġcooking": 720,
      "arm": 721,
      "Ġsoda": 722,
      "Ġpork": 723,
      "Ġmargar": 724,
      "Ġinch": 725,
      "Ġar": 726,
      "Ġbroth": 727,
      "Ġfill": 728,
      "Ġdegrees": 729,
      "Ġqu": 730,
      "cc": 731,
      "ress": 732,
      "Ġgold": 733,
      "Ġone": 734,
      "Ġthem": 735,
      "Ġsc": 736,
      "Ġlightly": 737,
      "Ġmargarine": 738,
      "ipe": 739,
      "fore": 740,
      "atter": 741,
      "pping": 742,
      "Ġorange": 743,
      "fer": 744,
      "Ġslic": 745,
      "Ġbefore": 746,
      "av": 747,
      "ian": 748,
      "Ġnot": 749,
      "Ġwhisk": 750,
      "Ġvegetable": 751,
      "Ġmustard": 752,
      "Ġwine": 753,
      "Ġsof": 754,
      "inger": 755,
      "Ġpine": 756,
      "ne": 757,
      "Ġgolden": 758,
      "na": 759,
      "Ġrec": 760,
      "ps": 761,
      "Ġside": 762,
      "Ġjust": 763,
      "Ġseed": 764,
      "Ġbot": 765,
      "Ġwarm": 766,
      "Ġsweet": 767,
      "les": 768,
      "Ġuse": 769,
      "Ġdis": 770,
      "Ġthis": 771,
      "Ġbas": 772,
      "Ġpasta": 773,
      "Ġbreast": 774,
      "est": 775,
      "ub": 776,
      "Ġsaute": 777,
      "Ġtran": 778,
      "Ġalmo": 779,
      "Ġbeans": 780,
      "Ġrecipe": 781,
      "Ġtrans": 782,
      "po": 783,
      "tom": 784,
      "Ġx": 785,
      "Ġdress": 786,
      "Ġcrust": 787,
      "apple": 788,
      "Ġmore": 789,
      "uc": 790,
      "anut": 791,
      "Ġlo": 792,
      "Ġpeanut": 793,
      "Ġfir": 794,
      "ray": 795,
      "mes": 796,
      "Ġwill": 797,
      "Ġdressing": 798,
      "af": 799,
      "akes": 800,
      "conut": 801,
      "can": 802,
      "Ġpineapple": 803,
      "Ġusing": 804,
      "Ġcoconut": 805,
      "Ġsto": 806,
      "Ġginger": 807,
      "tra": 808,
      "ire": 809,
      "vered": 810,
      "Ġbottom": 811,
      "uff": 812,
      "Ġpaper": 813,
      "Ġdo": 814,
      "zz": 815,
      "Ġextra": 816,
      "ini": 817,
      "Ġpur": 818,
      "Ġchili": 819,
      "nut": 820,
      "Ġice": 821,
      "ul": 822,
      "ins": 823,
      "Ġnuts": 824,
      "Ġcont": 825,
      "ries": 826,
      "Ġlayer": 827,
      "Ġtoss": 828,
      "Ġdes": 829,
      "Ġliqu": 830,
      "pose": 831,
      "ade": 832,
      "rough": 833,
      "Ġfry": 834,
      "Ġcrack": 835,
      "rimp": 836,
      "ately": 837,
      "Ġparmes": 838,
      "Ġcookies": 839,
      "Ġhigh": 840,
      "Ġparmesan": 841,
      "Ġtransfer": 842,
      "Ġsy": 843,
      "Ġpurpose": 844,
      "Ġthrough": 845,
      "Ġprep": 846,
      "ple": 847,
      "rup": 848,
      "Ġsaus": 849,
      "Ġsyrup": 850,
      "Ġpecan": 851,
      "Ġ40": 852,
      "Ġpieces": 853,
      "Ġshrimp": 854,
      "Ġtime": 855,
      "Ġham": 856,
      "Ġtaste": 857,
      "ved": 858,
      "Ġby": 859,
      "Ġrefrigerate": 860,
      "ddar": 861,
      "Ġcheddar": 862,
      "Ġ14": 863,
      "Ġseasoning": 864,
      "Ġalmond": 865,
      "Ġmelt": 866,
      "very": 867,
      "ently": 868,
      "ruit": 869,
      "Ġdri": 870,
      "ides": 871,
      "Ġspray": 872,
      "Ġball": 873,
      "Ġcups": 874,
      "Ġfree": 875,
      "Ġeven": 876,
      "Ġchill": 877,
      "ump": 878,
      "Ġprocess": 879,
      "Ġcoat": 880,
      "Ġslices": 881,
      "ack": 882,
      "Ġmelted": 883,
      "Ġlime": 884,
      "Ġoff": 885,
      "Ġthick": 886,
      "Ġsausage": 887,
      "Ġclo": 888,
      "ster": 889,
      "Ġnood": 890,
      "led": 891,
      "Ġcooked": 892,
      "Ġgla": 893,
      "Ġbar": 894,
      "Ġsides": 895,
      "Ġfilling": 896,
      "Ġbatter": 897,
      "os": 898,
      "cco": 899,
      "ions": 900,
      "Ġreduce": 901,
      "Ġvegetables": 902,
      "ks": 903,
      "stant": 904,
      "Ġliquid": 905,
      "oney": 906,
      "Ġslice": 907,
      "Ġstra": 908,
      "Ġteas": 909,
      "ame": 910,
      "ze": 911,
      "Ġban": 912,
      "Ġhoney": 913,
      "Ġrack": 914,
      "Ġteaspoon": 915,
      "Ġboiling": 916,
      "Ġbasil": 917,
      "Ġextract": 918,
      "tle": 919,
      "Ġfat": 920,
      "Ġtw": 921,
      "Ġfruit": 922,
      "Ġcris": 923,
      "Ġgreased": 924,
      "tt": 925,
      "Ġonto": 926,
      "Ġbanan": 927,
      "Ġfood": 928,
      "own": 929,
      "Ġplate": 930,
      "Ġmushrooms": 931,
      "Ġi": 932,
      "onna": 933,
      "Ġsoy": 934,
      "Ġbrocco": 935,
      "Ġlight": 936,
      "onnaise": 937,
      "rap": 938,
      "Ġmayonnaise": 939,
      "Ġroast": 940,
      "Ġstraw": 941,
      "ches": 942,
      "ired": 943,
      "Ġbroccoli": 944,
      "dding": 945,
      "Ġgrill": 946,
      "avy": 947,
      "ined": 948,
      "Ġspin": 949,
      "Ġfold": 950,
      "Ġstock": 951,
      "Ġpudding": 952,
      "gan": 953,
      "Ġspinach": 954,
      "Ġcookie": 955,
      "Ġtor": 956,
      "Ġpress": 957,
      "ges": 958,
      "Ġheavy": 959,
      "Ġsoft": 960,
      "Ġbrowned": 961,
      "Ġri": 962,
      "Ġdown": 963,
      "ous": 964,
      "Ġdesired": 965,
      "row": 966,
      "Ġ45": 967,
      "Ġlon": 968,
      "75": 969,
      "Ġno": 970,
      "Ġform": 971,
      "Ġlea": 972,
      "par": 973,
      "Ġshor": 974,
      "enter": 975,
      "Ġdip": 976,
      "ew": 977,
      "ac": 978,
      "less": 979,
      "ich": 980,
      "Ġcenter": 981,
      "Ġtablespoons": 982,
      "Ġmarin": 983,
      "Ġcher": 984,
      "Ġ16": 985,
      "ther": 986,
      "Ġthat": 987,
      "Ġ&": 988,
      "Ġ25": 989,
      "Ġevenly": 990,
      "ature": 991,
      "Ġbell": 992,
      "Ġbl": 993,
      "ka": 994,
      "key": 995,
      "Ġoat": 996,
      "Ġfoil": 997,
      "Ġtemp": 998,
      "umin": 999,
      "Ġsteak": 1000,
      "Ġgently": 1001,
      "Ġcomple": 1002,
      "Ġstand": 1003,
      "urn": 1004,
      "Ġuns": 1005,
      "25": 1006,
      "Ġbru": 1007,
      "Ġshall": 1008,
      "Ġocc": 1009,
      "ionally": 1010,
      "Ġpeppers": 1011,
      "ittle": 1012,
      "Ġcarrot": 1013,
      "Ġslightly": 1014,
      "other": 1015,
      "og": 1016,
      "Ġcomplete": 1017,
      "Ġoccas": 1018,
      "Ġfish": 1019,
      "Ġchopped": 1020,
      "Ġdone": 1021,
      "Ġshell": 1022,
      "low": 1023,
      "Ġwhip": 1024,
      "Ġoccasionally": 1025,
      "Ġonce": 1026,
      "tened": 1027,
      "Ġmuff": 1028,
      "Ġwhile": 1029,
      "tilla": 1030,
      "meg": 1031,
      "illed": 1032,
      "cor": 1033,
      "Ġore": 1034,
      "Ġtortilla": 1035,
      "alian": 1036,
      "Ġkee": 1037,
      "gin": 1038,
      "Ġcrisp": 1039,
      "Ġreser": 1040,
      "Ġcompletely": 1041,
      "Ġcle": 1042,
      "ull": 1043,
      "Ġcarrots": 1044,
      "yme": 1045,
      "Ġitalian": 1046,
      "Ġsiz": 1047,
      "sa": 1048,
      "Ġgarn": 1049,
      "Ġhave": 1050,
      "Ġother": 1051,
      "Ġthyme": 1052,
      "Ġlittle": 1053,
      "ould": 1054,
      "Ġflak": 1055,
      "Ġthey": 1056,
      "Ġpaste": 1057,
      "Ġeas": 1058,
      "antro": 1059,
      "ta": 1060,
      "Ġtopping": 1061,
      "ary": 1062,
      "Ġanother": 1063,
      "ilantro": 1064,
      "Ġflav": 1065,
      "Ġcilantro": 1066,
      "Ġed": 1067,
      "Ġwal": 1068,
      "Ġturkey": 1069,
      "Ġcrumb": 1070,
      "Ġyol": 1071,
      "kin": 1072,
      "Ġslow": 1073,
      "Ġtemper": 1074,
      "Ġmic": 1075,
      "arch": 1076,
      "Ġcur": 1077,
      "Ġkeep": 1078,
      "Ġhand": 1079,
      "Ġspic": 1080,
      "Ġwrap": 1081,
      "Â°.": 1082,
      "ition": 1083,
      "Ġaf": 1084,
      "gano": 1085,
      "Ġcoco": 1086,
      "ucch": 1087,
      "Ġbo": 1088,
      "Ġspe": 1089,
      "Ġtwo": 1090,
      "Ġtemperature": 1091,
      "ucchini": 1092,
      "Ġrais": 1093,
      "urt": 1094,
      "berries": 1095,
      "Ġstuff": 1096,
      "Ġcocoa": 1097,
      "Ġthicken": 1098,
      "Ġskin": 1099,
      "Ġnoodles": 1100,
      "Ġzucchini": 1101,
      "Ġwalnut": 1102,
      "Ġany": 1103,
      "Ġcold": 1104,
      "Ġafter": 1105,
      "Ġmicrow": 1106,
      "Ġpeel": 1107,
      "Ġ-": 1108,
      "ric": 1109,
      "Ġ375": 1110,
      "Ġpump": 1111,
      "abb": 1112,
      "high": 1113,
      "Ġ18": 1114,
      "Ġsome": 1115,
      "ang": 1116,
      "nds": 1117,
      "Ġbag": 1118,
      "Ġnutmeg": 1119,
      "Ġmixing": 1120,
      "Ġallow": 1121,
      "Ġvery": 1122,
      "abbage": 1123,
      "Ġchop": 1124,
      "Ġcabbage": 1125,
      "Ġgarnish": 1126,
      "Ġpumpkin": 1127,
      "Ġpl": 1128,
      "Ġbanana": 1129,
      "Ġmicrowave": 1130,
      "Ġta": 1131,
      "Ġoregano": 1132,
      "Ġfresh": 1133,
      "Ġmixer": 1134,
      "tening": 1135,
      "Ġcovered": 1136,
      "Ġpack": 1137,
      "hed": 1138,
      "Ġapp": 1139,
      "Ġfirst": 1140,
      "Ġnon": 1141,
      "Ġcrumbs": 1142,
      "Ġleaves": 1143,
      "Ġchips": 1144,
      "ogurt": 1145,
      "Ġpastry": 1146,
      "Ġblender": 1147,
      "be": 1148,
      "Ġpapri": 1149,
      "Ġyogurt": 1150,
      "Ġpure": 1151,
      "stic": 1152,
      "Ġshortening": 1153,
      "Ġgran": 1154,
      "Ġpaprika": 1155,
      "Ġfine": 1156,
      "cu": 1157,
      "de": 1158,
      "ator": 1159,
      "Ġseco": 1160,
      "ace": 1161,
      "milk": 1162,
      "Ġbit": 1163,
      "Ġzest": 1164,
      "Ġcontin": 1165,
      "Ġenough": 1166,
      "Ġloaf": 1167,
      "els": 1168,
      "starch": 1169,
      "Ġcornstarch": 1170,
      "sol": 1171,
      "nt": 1172,
      "ellow": 1173,
      "Ġcumin": 1174,
      "Ġye": 1175,
      "Ġpat": 1176,
      "Ġdirec": 1177,
      "Ġdrizz": 1178,
      "ite": 1179,
      "Ġcherry": 1180,
      "Ġwor": 1181,
      "Ġsquash": 1182,
      "urger": 1183,
      "Ġblended": 1184,
      "Ġcloves": 1185,
      "Ġyellow": 1186,
      "Ġdissol": 1187,
      "Ġbis": 1188,
      "Ġleast": 1189,
      "Ġlike": 1190,
      "asted": 1191,
      "ared": 1192,
      "oughly": 1193,
      "Ġ400": 1194,
      "ets": 1195,
      "Ġ17": 1196,
      "Ġtill": 1197,
      "Ġblue": 1198,
      "Ġcran": 1199,
      "Ġkn": 1200,
      "Ġrefrigerator": 1201,
      "Ġfirm": 1202,
      "Ġneed": 1203,
      "Ġballs": 1204,
      "Ġclean": 1205,
      "bly": 1206,
      "lla": 1207,
      "Ġscall": 1208,
      "ive": 1209,
      "Ġhas": 1210,
      "Ġbrush": 1211,
      "Ġunco": 1212,
      "ually": 1213,
      "Ġam": 1214,
      "Ġrest": 1215,
      "Ġbuttermilk": 1216,
      "Ġgrease": 1217,
      "Ġyeast": 1218,
      "Ġcracker": 1219,
      "Ġsur": 1220,
      "Ġprocessor": 1221,
      "Ġround": 1222,
      "Ġstick": 1223,
      "op": 1224,
      "Ġtow": 1225,
      "Ġstrawberry": 1226,
      "Ġlen": 1227,
      "ment": 1228,
      "Ġstri": 1229,
      "nch": 1230,
      "Ġread": 1231,
      "Ġplastic": 1232,
      "enne": 1233,
      "Ġsquare": 1234,
      "oc": 1235,
      "Ġmakes": 1236,
      "Ġpea": 1237,
      "izz": 1238,
      "Ġlett": 1239,
      "Ġdrizzle": 1240,
      "night": 1241,
      "Ġglass": 1242,
      "Ġfew": 1243,
      "umber": 1244,
      "Ġarran": 1245,
      "Ġimm": 1246,
      "wh": 1247,
      "Ġbay": 1248,
      "meal": 1249,
      "Ġimmedi": 1250,
      "Ġcontinue": 1251,
      "Ġcrumble": 1252,
      "Ġimmediately": 1253,
      "Ġsalmon": 1254,
      "Ġshould": 1255,
      "ling": 1256,
      "ig": 1257,
      "ind": 1258,
      "Ġap": 1259,
      "Ġret": 1260,
      "Ġbaked": 1261,
      "Ġbone": 1262,
      "Ġarrange": 1263,
      "'t": 1264,
      "Ġher": 1265,
      "Ġflavor": 1266,
      "stick": 1267,
      "Ġthor": 1268,
      "Ġovernight": 1269,
      "Ġpizz": 1270,
      "Ġapples": 1271,
      "Ġthoroughly": 1272,
      "Ġcuc": 1273,
      "Ġground": 1274,
      "Ġca": 1275,
      "Ġaddition": 1276,
      "shire": 1277,
      "Ġcaram": 1278,
      "Ġthin": 1279,
      "Ġcucumber": 1280,
      "Ġspeed": 1281,
      "sp": 1282,
      "esame": 1283,
      "Ġfork": 1284,
      "pt": 1285,
      "Ġsurf": 1286,
      "Ġshap": 1287,
      "Ġmozz": 1288,
      "Ġsesame": 1289,
      "Ġreturn": 1290,
      "oni": 1291,
      "Ġlettuce": 1292,
      "arella": 1293,
      "Ġroom": 1294,
      "Ġsize": 1295,
      "ffee": 1296,
      "stershire": 1297,
      "ess": 1298,
      "Ġprepared": 1299,
      "Ġcro": 1300,
      "Ġconstant": 1301,
      "osher": 1302,
      "Ġkosher": 1303,
      "Ġmozzarella": 1304,
      "Ġav": 1305,
      "Ġconstantly": 1306,
      "Ġworce": 1307,
      "Ġsurface": 1308,
      "Ġper": 1309,
      ".)": 1310,
      "Ġworcestershire": 1311,
      "Ġjell": 1312,
      "Ġcol": 1313,
      "Ġseeds": 1314,
      "Ġfri": 1315,
      "Ġquick": 1316,
      "ift": 1317,
      "Ġdro": 1318,
      "ok": 1319,
      "Ġeasy": 1320,
      "fe": 1321,
      "alted": 1322,
      "Ġcreamy": 1323,
      "ist": 1324,
      "Ġmac": 1325,
      "Ġpizza": 1326,
      "Ġready": 1327,
      "Ġcontain": 1328,
      "Ġfrost": 1329,
      "ssi": 1330,
      "oured": 1331,
      "Ġpick": 1332,
      "Ġcaramel": 1333,
      "ding": 1334,
      "Ġaround": 1335,
      "ned": 1336,
      "Ġunsalted": 1337,
      "sem": 1338,
      "Ġcare": 1339,
      "Ġmean": 1340,
      "oy": 1341,
      "Ġback": 1342,
      "Ġday": 1343,
      "ful": 1344,
      "Ġmarsh": 1345,
      "mallow": 1346,
      "Ġtake": 1347,
      "Ġdiv": 1348,
      "fat": 1349,
      "while": 1350,
      "Ġwhites": 1351,
      "Ġprepare": 1352,
      "Ġrolls": 1353,
      "Ġmarshmallow": 1354,
      "tti": 1355,
      "ife": 1356,
      "Ġpossi": 1357,
      "ting": 1358,
      "ep": 1359,
      "sed": 1360,
      "Ġlonger": 1361,
      "Ġsalsa": 1362,
      "aghe": 1363,
      "Ġmeanwhile": 1364,
      "Ġcombined": 1365,
      "Ġgrad": 1366,
      "Ġdon": 1367,
      "Ġbreak": 1368,
      "ark": 1369,
      "cake": 1370,
      "Ġspaghe": 1371,
      "Ġgradually": 1372,
      "Ġsand": 1373,
      "irgin": 1374,
      "Ġedges": 1375,
      "ully": 1376,
      "Ġag": 1377,
      "Ġbub": 1378,
      "Ġspaghetti": 1379,
      "Ġknife": 1380,
      "Ġpans": 1381,
      "Ġsw": 1382,
      "Ġpuree": 1383,
      "ort": 1384,
      "ai": 1385,
      "cuit": 1386,
      "dge": 1387,
      "Ġwe": 1388,
      "sc": 1389,
      "etened": 1390,
      "side": 1391,
      "Ġline": 1392,
      "ust": 1393,
      "up": 1394,
      "Ġsepar": 1395,
      "Ġfloured": 1396,
      "Ġacc": 1397,
      "Ġboth": 1398,
      "Ġpecans": 1399,
      "Ġdirect": 1400,
      "Ġdou": 1401,
      "atin": 1402,
      "Ġbiscuit": 1403,
      "yle": 1404,
      "Ġmint": 1405,
      "Ġcay": 1406,
      "Ġseconds": 1407,
      "Ġinstant": 1408,
      "Ġdisc": 1409,
      "Ġcoffee": 1410,
      "Ġshallot": 1411,
      "Ġcayenne": 1412,
      "apen": 1413,
      "Ġvirgin": 1414,
      "Ġwire": 1415,
      "Ġrepe": 1416,
      "Ġcomes": 1417,
      "ula": 1418,
      "Ġcranberry": 1419,
      "way": 1420,
      "Ġrepeat": 1421,
      "Ġbet": 1422,
      "Ġjal": 1423,
      "Ġdouble": 1424,
      "zen": 1425,
      "Ġcand": 1426,
      "Ġpart": 1427,
      "Ġcond": 1428,
      "lower": 1429,
      "Ġmarinade": 1430,
      "iste": 1431,
      "Ġjar": 1432,
      "wise": 1433,
      "Ġdivide": 1434,
      "Ġ19": 1435,
      "Ġshape": 1436,
      "Ġuncovered": 1437,
      "Ġdrop": 1438,
      "mb": 1439,
      "Ġsandw": 1440,
      "Ġho": 1441,
      "Ġcontainer": 1442,
      "als": 1443,
      "Ġjalapen": 1444,
      "ican": 1445,
      "orated": 1446,
      "Ġloo": 1447,
      "Ġslowly": 1448,
      "Ġmuffin": 1449,
      "lated": 1450,
      "Ġgel": 1451,
      "Ġcurry": 1452,
      "flower": 1453,
      "Ġwed": 1454,
      "Ġwork": 1455,
      "Ġstore": 1456,
      "Ġgranu": 1457,
      "Ġtri": 1458,
      "Ġtaco": 1459,
      "ocad": 1460,
      "Ġdiscard": 1461,
      "Ġconden": 1462,
      "Ġtart": 1463,
      "Ġcondensed": 1464,
      "Ġwheat": 1465,
      "Ġavocad": 1466,
      "Ġcolor": 1467,
      "Ġpackage": 1468,
      "Ġmas": 1469,
      "joy": 1470,
      "Ġ325": 1471,
      "dered": 1472,
      "Ġfo": 1473,
      "Ġenjoy": 1474,
      "Ġpowdered": 1475,
      "Ġmacar": 1476,
      "Ġfrying": 1477,
      "ddle": 1478,
      "Ġchile": 1479,
      "Ġad": 1480,
      "Ġtbs": 1481,
      "ola": 1482,
      "Ġtoo": 1483,
      "ording": 1484,
      "chment": 1485,
      "Ġdill": 1486,
      "Ġdark": 1487,
      "Ġparchment": 1488,
      "Ġfluff": 1489,
      "Ġgo": 1490,
      "Ġaccording": 1491,
      "Ġpeas": 1492,
      "Ġturning": 1493,
      "Ġchun": 1494,
      "Ġboneless": 1495,
      "Ġdeep": 1496,
      "ction": 1497,
      "ount": 1498,
      "uck": 1499,
      "Ġgranulated": 1500,
      "Ġstew": 1501,
      "Ġraisin": 1502,
      "Ġfrosting": 1503,
      "Ġcrab": 1504,
      "semary": 1505,
      "Ġras": 1506,
      "burger": 1507,
      "Ġlb": 1508,
      "Ġsift": 1509,
      "Ġrub": 1510,
      "Ġjuic": 1511,
      "Ġrosemary": 1512,
      "Ġcub": 1513,
      "arp": 1514,
      "Ġstrain": 1515,
      "Ġchops": 1516,
      "by": 1517,
      "Ġgood": 1518,
      "Ġagain": 1519,
      "Ġseparate": 1520,
      "Ġlong": 1521,
      "Ġrasp": 1522,
      "nel": 1523,
      "Ġadditional": 1524,
      "cept": 1525,
      "Ġflat": 1526,
      "Ġyolk": 1527,
      "Ġsmok": 1528,
      "Ġsea": 1529,
      "gth": 1530,
      "parag": 1531,
      "pl": 1532,
      "paragus": 1533,
      "Ġinser": 1534,
      "xt": 1535,
      "Ġmins": 1536,
      "Ġevery": 1537,
      "ong": 1538,
      "Ġasparagus": 1539,
      "ham": 1540,
      "lect": 1541,
      "Ġmacaroni": 1542,
      "Ġthickened": 1543,
      "Ġdel": 1544,
      "Ġfrench": 1545,
      "rum": 1546,
      "),": 1547,
      "Ġ24": 1548,
      "una": 1549,
      "iche": 1550,
      "mer": 1551,
      "so": 1552,
      "Ġlength": 1553,
      "ree": 1554,
      "Ġwhipped": 1555,
      "ball": 1556,
      "Ġ\"": 1557,
      "Ġsheets": 1558,
      "Ġsure": 1559,
      "Ġgelatin": 1560,
      "Ġnext": 1561,
      "Ġroasted": 1562,
      "Ġhamburger": 1563,
      "Ġfet": 1564,
      "iler": 1565,
      "asts": 1566,
      "Ġavocado": 1567,
      "Ġjalapeno": 1568,
      "Ġev": 1569,
      "Ġgraham": 1570,
      "iss": 1571,
      "Ġlid": 1572,
      "cakes": 1573,
      "Ġtuna": 1574,
      "Ġend": 1575,
      "Ġfreeze": 1576,
      "ale": 1577,
      "Ġpossibly": 1578,
      "aking": 1579,
      "Ġcrackers": 1580,
      "ms": 1581,
      "Ġeggpl": 1582,
      "fully": 1583,
      "Ġadding": 1584,
      "Ġbarbe": 1585,
      "Ġreserved": 1586,
      "iff": 1587,
      "Ġinches": 1588,
      "Ġbat": 1589,
      "Ġcrumbled": 1590,
      "Ġplain": 1591,
      "Ġpear": 1592,
      "Ġgrilled": 1593,
      "Ġbars": 1594,
      "Ġcau": 1595,
      "Ġpul": 1596,
      "heated": 1597,
      "Ġdirections": 1598,
      "Ġlamb": 1599,
      "Ġber": 1600,
      "int": 1601,
      "Ġtbsp": 1602,
      "Ġyolks": 1603,
      "ia": 1604,
      "Ġcooled": 1605,
      "aple": 1606,
      "Ġcarefully": 1607,
      "Ġtoast": 1608,
      "Ġstyle": 1609,
      "Ġshallow": 1610,
      "Ġstart": 1611,
      "Ġheated": 1612,
      "Ġreduc": 1613,
      "io": 1614,
      "Ġelect": 1615,
      "Ġmuffins": 1616,
      "Ġexcept": 1617,
      "Ġmaple": 1618,
      "Ġfluffy": 1619,
      "Ġstrips": 1620,
      "Ġalmonds": 1621,
      "Ġelectric": 1622,
      "Ġsquares": 1623,
      "Ġhead": 1624,
      "Ġsliced": 1625,
      "Ġspice": 1626,
      "Ġbreasts": 1627,
      "ek": 1628,
      "ider": 1629,
      "liflower": 1630,
      "vy": 1631,
      "Ġcanned": 1632,
      "quart": 1633,
      "Ġket": 1634,
      "Ġreduced": 1635,
      "ased": 1636,
      "ino": 1637,
      "sse": 1638,
      "Ġcubes": 1639,
      "Ġservings": 1640,
      "corn": 1641,
      "Ġevap": 1642,
      "ween": 1643,
      "Ġcauliflower": 1644,
      "Ġlowfat": 1645,
      "Ġget": 1646,
      "Ġsteam": 1647,
      "Ġcla": 1648,
      "tern": 1649,
      "arts": 1650,
      "Ġbetween": 1651,
      "Ġneeded": 1652,
      "Ġmon": 1653,
      "ft": 1654,
      "Ġfreez": 1655,
      "Ġeggplant": 1656,
      "Ġnonstick": 1657,
      "rox": 1658,
      "Ġmixed": 1659,
      "Ġnone": 1660,
      "bread": 1661,
      "Ġwhole": 1662,
      "isten": 1663,
      "Ġcons": 1664,
      "Ġolives": 1665,
      "mi": 1666,
      "Ġseal": 1667,
      "Ġwax": 1668,
      "Ġpiece": 1669,
      "Ġfrozen": 1670,
      "Ġglaze": 1671,
      "Ġstuffing": 1672,
      "Ġsco": 1673,
      "ings": 1674,
      "Ġunder": 1675,
      "Ġsharp": 1676,
      "Ġfin": 1677,
      "crum": 1678,
      "Ġsher": 1679,
      "Ġsquee": 1680,
      "inse": 1681,
      "Ġpreheated": 1682,
      "rag": 1683,
      "Ġbra": 1684,
      "Ġsalted": 1685,
      "Ġrinse": 1686,
      "Ġmeatball": 1687,
      "gs": 1688,
      "Ġmini": 1689,
      "Ġtooth": 1690,
      "Ġoatmeal": 1691,
      "Ġbreadcrum": 1692,
      "Ġstrawberries": 1693,
      "iel": 1694,
      "pick": 1695,
      "Ġsoak": 1696,
      "Ġinserted": 1697,
      "Ġrun": 1698,
      "icot": 1699,
      "Ġart": 1700,
      "Ġcider": 1701,
      "nead": 1702,
      "ria": 1703,
      "ricot": 1704,
      "cy": 1705,
      "Ġbun": 1706,
      "imes": 1707,
      "Ġcoated": 1708,
      "Ġexcess": 1709,
      "Ġtoothpick": 1710,
      "Ġcap": 1711,
      "Ġplatter": 1712,
      "Ġalso": 1713,
      "Ġ21": 1714,
      "Ġnote": 1715,
      "Ġknead": 1716,
      "ton": 1717,
      "Ġwalnuts": 1718,
      "Ġwash": 1719,
      "ma": 1720,
      "Ġleave": 1721,
      "Ġapricot": 1722,
      "tered": 1723,
      "Ġspring": 1724,
      "Ġstill": 1725,
      "Ġport": 1726,
      "Ġmex": 1727,
      "Ġherb": 1728,
      "ation": 1729,
      "Ġcandy": 1730,
      "Ġ50": 1731,
      "greased": 1732,
      "Ġraspberry": 1733,
      "Ġsm": 1734,
      "Ġcrock": 1735,
      "Ġspicy": 1736,
      "Ġbou": 1737,
      "cle": 1738,
      "amic": 1739,
      "Ġshake": 1740,
      "Ġhard": 1741,
      "Ġspat": 1742,
      "ters": 1743,
      "Ġop": 1744,
      "cre": 1745,
      "Ġapprox": 1746,
      "Ġha": 1747,
      "Ġlengthwise": 1748,
      "Ġblueberry": 1749,
      "Ġscra": 1750,
      "Ġwood": 1751,
      "Ġsoftened": 1752,
      "Ġtea": 1753,
      "fection": 1754,
      "Ġbaby": 1755,
      "Ġstuffed": 1756,
      "Ġ22": 1757,
      "Ġspatula": 1758,
      "Ġspices": 1759,
      "Ġdut": 1760,
      "unch": 1761,
      "Ġpound": 1762,
      "Ġevaporated": 1763,
      "Ġtowel": 1764,
      "Ġartich": 1765,
      "riander": 1766,
      "Ġstal": 1767,
      "cue": 1768,
      "ized": 1769,
      "Ġconfection": 1770,
      "Ġpatt": 1771,
      "Ġic": 1772,
      "Ġjam": 1773,
      "Ġbr": 1774,
      "Ġbarbecue": 1775,
      "Ġbananas": 1776,
      "bo": 1777,
      "Ġraisins": 1778,
      "Ġpink": 1779,
      "Ġrise": 1780,
      "Ġfreezer": 1781,
      "Ġjuices": 1782,
      "Ġused": 1783,
      "Ġair": 1784,
      "Ġgrated": 1785,
      "Ġfried": 1786,
      "Ġole": 1787,
      "Ġcoriander": 1788,
      "Ġwant": 1789,
      "iled": 1790,
      "cessary": 1791,
      "Ġbeg": 1792,
      "Ġbeating": 1793,
      "ier": 1794,
      "Ġfu": 1795,
      "Ġbest": 1796,
      "Ġnecessary": 1797,
      "Ġamount": 1798,
      "ds": 1799,
      "Ġsit": 1800,
      "Ġflakes": 1801,
      "Ġstiff": 1802,
      "imately": 1803,
      "tte": 1804,
      "Ġfeta": 1805,
      "Ġwhipping": 1806,
      "Ġmash": 1807,
      "Ġsmoked": 1808,
      "Ġdutch": 1809,
      "Ġoleo": 1810,
      "Ġfav": 1811,
      "jon": 1812,
      "Ġchilled": 1813,
      "chup": 1814,
      "Ġpin": 1815,
      "alsamic": 1816,
      "Ġcooker": 1817,
      "veral": 1818,
      "ase": 1819,
      "Ġdissolved": 1820,
      "Ġcal": 1821,
      "Ġketchup": 1822,
      "Ġserves": 1823,
      "Ġricot": 1824,
      "Ġwil": 1825,
      "Ġlayers": 1826,
      "Ġricotta": 1827,
      "Ġskinless": 1828,
      "Ġsub": 1829,
      "Ġseveral": 1830,
      "Ġreserve": 1831,
      "Ġbalsamic": 1832,
      "Ġdissolve": 1833,
      "Ġremoved": 1834,
      "Ġind": 1835,
      "Ġdijon": 1836,
      "weetened": 1837,
      "Ġbiscuits": 1838,
      "Ġpuff": 1839,
      "Ġmeatballs": 1840,
      "ium": 1841,
      "Ġris": 1842,
      "shed": 1843,
      "Ġunsweetened": 1844,
      "Ġcott": 1845,
      "Ġtowels": 1846,
      "fu": 1847,
      "istency": 1848,
      "Ġscoop": 1849,
      "Ġpunch": 1850,
      "Ġgrain": 1851,
      "Ġsn": 1852,
      "fry": 1853,
      "Ġmexican": 1854,
      "lish": 1855,
      "ced": 1856,
      "Ġcanola": 1857,
      "Ġfen": 1858,
      "Ġmy": 1859,
      "Ġmade": 1860,
      "Ġconsistency": 1861,
      "Ġaltern": 1862,
      "ney": 1863,
      "Ġribs": 1864,
      "10": 1865,
      "Ġlast": 1866,
      "Ġsandwich": 1867,
      "Ġsherry": 1868,
      "Ġsame": 1869,
      "quently": 1870,
      "Ġhands": 1871,
      "Ġfrequently": 1872,
      "ght": 1873,
      "Ġrum": 1874,
      "Ġwedges": 1875,
      "Ġapproximately": 1876,
      "Ġvegg": 1877,
      "man": 1878,
      "Ġgravy": 1879,
      "Ġtortillas": 1880,
      "Ġcrushed": 1881,
      "Ġbuttered": 1882,
      "Ġalong": 1883,
      "Ġsim": 1884,
      "Ġmeas": 1885,
      "aten": 1886,
      "Ġcornmeal": 1887,
      "Ġapart": 1888,
      "Ġpeach": 1889,
      "Ġfennel": 1890,
      "ango": 1891,
      "..": 1892,
      "Ġ23": 1893,
      "ously": 1894,
      "Ġwooden": 1895,
      "Ġsage": 1896,
      "Ġseasoned": 1897,
      "Ġleaf": 1898,
      "Ġthree": 1899,
      "Ġraw": 1900,
      "Ġfull": 1901,
      "Ġbouill": 1902,
      "Ġbu": 1903,
      "Ġcottage": 1904,
      "pot": 1905,
      "Ġalmost": 1906,
      "Ġicing": 1907,
      "Ġ425": 1908,
      "of": 1909,
      "Ġbouillon": 1910,
      "Ġstrip": 1911,
      "orb": 1912,
      "Ġtimes": 1913,
      "just": 1914,
      "about": 1915,
      "sag": 1916,
      "sely": 1917,
      "Ġfudge": 1918,
      "ating": 1919,
      "Ġtin": 1920,
      "Ġjelly": 1921,
      "Ġsun": 1922,
      "ness": 1923,
      "Ġmiddle": 1924,
      "sted": 1925,
      "Ġcl": 1926,
      "zed": 1927,
      "Ġmango": 1928,
      "Ġfour": 1929,
      "Ġcheesecake": 1930,
      "Ġpinch": 1931,
      "Ġstalk": 1932,
      "Ġfavor": 1933,
      "Ġtofu": 1934,
      "dded": 1935,
      "Ġlasag": 1936,
      "Ġopen": 1937,
      "llow": 1938,
      "Ġgrap": 1939,
      "uring": 1940,
      "Ġthan": 1941,
      "Ġburn": 1942,
      "ily": 1943,
      "Ġungreased": 1944,
      "Ġhome": 1945,
      "Ġsodium": 1946,
      "Ġchees": 1947,
      "ular": 1948,
      "Ġbowls": 1949,
      "Ġscallions": 1950,
      "Ġmola": 1951,
      "Ġfavorite": 1952,
      "Ġrind": 1953,
      "tail": 1954,
      "Ġpit": 1955,
      "Ġbroiler": 1956,
      "Ġcoar": 1957,
      "Ġtightly": 1958,
      "Ġyiel": 1959,
      "Ġhor": 1960,
      "loin": 1961,
      "Ġfinely": 1962,
      "Ġburger": 1963,
      "stit": 1964,
      "Ġbroil": 1965,
      "Ġshallots": 1966,
      "Ġswiss": 1967,
      "Ġcakes": 1968,
      "ored": 1969,
      "Ġshre": 1970,
      "Ġmeal": 1971,
      "bon": 1972,
      "Ġdesser": 1973,
      "Ġspl": 1974,
      "zel": 1975,
      "Ġvin": 1976,
      "Ġman": 1977,
      "Ġroasting": 1978,
      "Ġmoder": 1979,
      "Ġbite": 1980,
      "Ġbubbly": 1981,
      "ched": 1982,
      "Ġtsp": 1983,
      "Ġcutting": 1984,
      "Ġcustard": 1985,
      "Ġcir": 1986,
      "Ġbon": 1987,
      "Ġway": 1988,
      "ied": 1989,
      "Ġclove": 1990,
      "Ġtou": 1991,
      "Ġmaking": 1992,
      "Ġskew": 1993,
      "real": 1994,
      "Ġequ": 1995,
      "per": 1996,
      "ives": 1997,
      "Ġcrispy": 1998,
      "Ġtoasted": 1999,
      "Ġmuch": 2000,
      "Ġshredded": 2001,
      "Ġpatties": 2002,
      "Ġreg": 2003,
      "Ġdessert": 2004,
      "Ġcock": 2005,
      "spice": 2006,
      "rit": 2007,
      "Ġlentil": 2008,
      "Ġseasonings": 2009,
      "Ġadjust": 2010,
      "Ġdays": 2011,
      "Ġoften": 2012,
      "Ġedge": 2013,
      "corp": 2014,
      "Ġlower": 2015,
      "20": 2016,
      "Ġfit": 2017,
      "Ġonly": 2018,
      "thing": 2019,
      "Ġshells": 2020,
      "Ġchunk": 2021,
      "Ġsubstit": 2022,
      "Ġincorp": 2023,
      "Ġcocktail": 2024,
      "Ġjack": 2025,
      "grette": 2026,
      "Ġteaspoons": 2027,
      "cho": 2028,
      "for": 2029,
      "head": 2030,
      "Ġquar": 2031,
      "Ġgreens": 2032,
      "Ġsplit": 2033,
      "Ġbeer": 2034,
      "Ġmold": 2035,
      "Ġplates": 2036,
      "aigrette": 2037,
      "gel": 2038,
      "Ġcereal": 2039,
      "Ġvinaigrette": 2040,
      "amp": 2041,
      "Ġdried": 2042,
      "Ġmarinate": 2043,
      "anch": 2044,
      "made": 2045,
      "Ġwra": 2046,
      "Ġdump": 2047,
      "Ġold": 2048,
      "Ġsweetened": 2049,
      "Ġhalves": 2050,
      "Ġtops": 2051,
      "Ġver": 2052,
      "Ġolif": 2053,
      "ious": 2054,
      "Ġgen": 2055,
      "Ġtip": 2056,
      "Ġbeen": 2057,
      "Ġbeaten": 2058,
      "Ġcherries": 2059,
      "Ġprefer": 2060,
      "Ġabs": 2061,
      "Ġsoften": 2062,
      "ppy": 2063,
      "ats": 2064,
      "Ġdust": 2065,
      "sauce": 2066,
      "Ġfridge": 2067,
      "Ġpim": 2068,
      "Ġsqueeze": 2069,
      "Ġshort": 2070,
      "Ġpeak": 2071,
      "Ġsubstitute": 2072,
      "Ġtray": 2073,
      "Ġpulse": 2074,
      "Ġleaving": 2075,
      "Ġstove": 2076,
      "Ġnow": 2077,
      "pro": 2078,
      "Ġscrape": 2079,
      "Ġits": 2080,
      "bles": 2081,
      "Ġkra": 2082,
      "rant": 2083,
      "esto": 2084,
      "Ġjello": 2085,
      "Ġtub": 2086,
      "Ġbri": 2087,
      "Ġtrim": 2088,
      "Ġdice": 2089,
      "Ġlasagna": 2090,
      "Ġbatches": 2091,
      "Ġkid": 2092,
      "Ġinside": 2093,
      "Ġsing": 2094,
      "tight": 2095,
      "Ġappl": 2096,
      "Ġchunks": 2097,
      "Ġnoodl": 2098,
      "Ġallspice": 2099,
      "Ġnice": 2100,
      "Ġpesto": 2101,
      "Ġtar": 2102,
      "Ġchick": 2103,
      "nuts": 2104,
      "Ġrib": 2105,
      "Ġsecond": 2106,
      "Ġpop": 2107,
      "Ġabsorb": 2108,
      "Ġsteaks": 2109,
      "Ġquickly": 2110,
      "Ġgener": 2111,
      "Ġpeaches": 2112,
      "od": 2113,
      "Ġbreadcrumb": 2114,
      "Ġboard": 2115,
      "Ġhomemade": 2116,
      "ird": 2117,
      "Ġahead": 2118,
      "Ġfollow": 2119,
      "Ġir": 2120,
      "iced": 2121,
      "oke": 2122,
      "15": 2123,
      "Ġlean": 2124,
      "Ġapplesauce": 2125,
      "ning": 2126,
      "Ġwet": 2127,
      "kra": 2128,
      "Ġbeco": 2129,
      "Ġskim": 2130,
      "Ġhold": 2131,
      "ass": 2132,
      "iches": 2133,
      "Ġdate": 2134,
      "Ġairtight": 2135,
      "Ġbul": 2136,
      "Ġweight": 2137,
      "Ġpeaks": 2138,
      "Ġcreamed": 2139,
      "Ġcreme": 2140,
      "Ġ450": 2141,
      "Ġeverything": 2142,
      "Ġstem": 2143,
      "Ġbrownies": 2144,
      "hes": 2145,
      "the": 2146,
      "Ġfirmly": 2147,
      "Ġgoat": 2148,
      "Ġwithout": 2149,
      "Ġberries": 2150,
      "law": 2151,
      "Ġcoloring": 2152,
      "Ġlad": 2153,
      "Ġoy": 2154,
      "Ġrolling": 2155,
      "Ġartichoke": 2156,
      "iv": 2157,
      "Ġpancakes": 2158,
      "illets": 2159,
      "Ġther": 2160,
      "Ġmashed": 2161,
      "Ġoyster": 2162,
      "Ġrect": 2163,
      "ler": 2164,
      "Ġbegin": 2165,
      "ata": 2166,
      "uminum": 2167,
      "ity": 2168,
      "Ġrectang": 2169,
      "Ġcornbread": 2170,
      "Ġoats": 2171,
      "Ġ300": 2172,
      "Ġherbs": 2173,
      "Ġdelic": 2174,
      "Ġplum": 2175,
      "ingers": 2176,
      "Ġthermo": 2177,
      "Ġsandwiches": 2178,
      "Ġlined": 2179,
      "Ġjars": 2180,
      "Ġaway": 2181,
      "Ġsemi": 2182,
      "Ġwhit": 2183,
      "Ġtb": 2184,
      "weet": 2185,
      "Ġker": 2186,
      "Ġbegins": 2187,
      "Ġfillet": 2188,
      "Ġdecor": 2189,
      "arb": 2190,
      "Ġph": 2191,
      "meter": 2192,
      "Ġaluminum": 2193,
      "Ġkraft": 2194,
      "Ġchives": 2195,
      "inner": 2196,
      "Ġthermometer": 2197,
      "chil": 2198,
      "Ġkit": 2199,
      "proof": 2200,
      "Ġbrand": 2201,
      "Ġstep": 2202,
      "Ġthere": 2203,
      "Ġfillets": 2204,
      "Ġtex": 2205,
      "Ġmer": 2206,
      "Ġsingle": 2207,
      "Ġcrunch": 2208,
      "Ġund": 2209,
      "Ġdiced": 2210,
      "pend": 2211,
      "Ġsel": 2212,
      "fuls": 2213,
      "Ġchickpe": 2214,
      "Ġgu": 2215,
      "Ġrh": 2216,
      "Ġstre": 2217,
      "tere": 2218,
      "--": 2219,
      "Ġdripping": 2220,
      "Ġwee": 2221,
      "au": 2222,
      "Ġthigh": 2223,
      "meric": 2224,
      "chen": 2225,
      "lled": 2226,
      "Ġturmeric": 2227,
      "Ġgreek": 2228,
      "fast": 2229,
      "Ġkidney": 2230,
      "Ġthese": 2231,
      "Ġmet": 2232,
      "Ġranch": 2233,
      "Ġthickens": 2234,
      "chilad": 2235,
      "arin": 2236,
      "Ġchest": 2237,
      "Ġenchilad": 2238,
      "atch": 2239,
      "Ġes": 2240,
      "Ġgreat": 2241,
      "Ġbits": 2242,
      "cl": 2243,
      "ubarb": 2244,
      "rate": 2245,
      "Ġdirected": 2246,
      "aked": 2247,
      "Ġsized": 2248,
      "cook": 2249,
      "ops": 2250,
      "Ġbreakfast": 2251,
      "Ġwok": 2252,
      "Ġmelts": 2253,
      "mble": 2254,
      "ffle": 2255,
      "ragon": 2256,
      "Ġflip": 2257,
      "otted": 2258,
      "Ġchipot": 2259,
      "Ġrim": 2260,
      "Ġthickness": 2261,
      "Ġchar": 2262,
      "Ġchoice": 2263,
      "30": 2264,
      "Ġscrap": 2265,
      "Ġtheir": 2266,
      "Ġpreser": 2267,
      "Ġpeppercorn": 2268,
      "ctions": 2269,
      "Ġdelicious": 2270,
      "Ġrhubarb": 2271,
      "Ġlef": 2272,
      "Ġveggies": 2273,
      "do": 2274,
      "ny": 2275,
      "Ġwhich": 2276,
      "irl": 2277,
      "tover": 2278,
      "Ġrad": 2279,
      "ual": 2280,
      "Ġmering": 2281,
      "oun": 2282,
      "Ġleftover": 2283,
      "Ġwhisking": 2284,
      "Ġflatten": 2285,
      "Ġmarshmallows": 2286,
      "Ġger": 2287,
      "Ġ.": 2288,
      "Ġtarragon": 2289,
      "13": 2290,
      "Ġcheck": 2291,
      "Ġtab": 2292,
      "otch": 2293,
      "Ġadded": 2294,
      "Ġtenderloin": 2295,
      "Ġslotted": 2296,
      "ye": 2297,
      "zo": 2298,
      "terey": 2299,
      "Ġheart": 2300,
      "its": 2301,
      "serad": 2302,
      "tal": 2303,
      "seradish": 2304,
      "Ġcrisco": 2305,
      "ette": 2306,
      "vent": 2307,
      "Ġmonterey": 2308,
      "baked": 2309,
      "Ġhash": 2310,
      "Ġtartar": 2311,
      "Ġsee": 2312,
      "Ġdoes": 2313,
      "Ġkale": 2314,
      "inoa": 2315,
      "Ġfrag": 2316,
      "Ġequal": 2317,
      "Ġcola": 2318,
      "ty": 2319,
      "thy": 2320,
      "pending": 2321,
      "Ġancho": 2322,
      "Ġhorseradish": 2323,
      "Ġquinoa": 2324,
      "ieve": 2325,
      "Ġkitchen": 2326,
      "meat": 2327,
      "Ġmost": 2328,
      "Ġcresc": 2329,
      "rug": 2330,
      "Ġcranberries": 2331,
      "aw": 2332,
      "Ġcupcakes": 2333,
      "asco": 2334,
      "Ġberry": 2335,
      "ize": 2336,
      "Ġsau": 2337,
      "outs": 2338,
      "Ġracks": 2339,
      "Ġangel": 2340,
      "Ġbase": 2341,
      "Ġfa": 2342,
      "Ġcous": 2343,
      "Ġless": 2344,
      "Ġends": 2345,
      "Ġfive": 2346,
      "Ġincorporated": 2347,
      "Ġconfectioners": 2348,
      "Ġac": 2349,
      "Ġchipotle": 2350,
      "Ġarug": 2351,
      "Ġrolled": 2352,
      "Ġregular": 2353,
      "Ġself": 2354,
      "Ġchilies": 2355,
      "Ġflavored": 2356,
      "Ġpull": 2357,
      "Ġcoup": 2358,
      "Ġ60": 2359,
      "ari": 2360,
      "Ġarugula": 2361,
      "Ġminced": 2362,
      "Ġpist": 2363,
      "Ġforms": 2364,
      "Ġmand": 2365,
      "Ġreserving": 2366,
      "Ġabsorbed": 2367,
      "Ġ26": 2368,
      "Ġoranges": 2369,
      "ento": 2370,
      "Ġwide": 2371,
      "Ġtabasco": 2372,
      "Ġsimple": 2373,
      "Ġincre": 2374,
      "ron": 2375,
      "Ġgl": 2376,
      "Ġbuns": 2377,
      "eur": 2378,
      "Ġcard": 2379,
      "Ġbig": 2380,
      "Ġfinish": 2381,
      "Ġchow": 2382,
      "Ġprevent": 2383,
      "Ġchiles": 2384,
      "Ġright": 2385,
      "Ġwas": 2386,
      "Ġmed": 2387,
      "ivid": 2388,
      "Ġwings": 2389,
      "cent": 2390,
      "Ġfragrant": 2391,
      "Ġrelish": 2392,
      "Ġburgers": 2393,
      "Ġliqueur": 2394,
      "Ġwaxed": 2395,
      "Ġdinner": 2396,
      "Ġdrained": 2397,
      "Ġtube": 2398,
      "hew": 2399,
      "Ġchin": 2400,
      "Ġdrippings": 2401,
      "Ġrising": 2402,
      "Ġpistach": 2403,
      "Ġdumpling": 2404,
      "Ġtransl": 2405,
      "Ġindivid": 2406,
      "Ġrea": 2407,
      "Ġsuch": 2408,
      "Ġpoint": 2409,
      "cous": 2410,
      "Ġheal": 2411,
      "Ġcouple": 2412,
      "Ġamon": 2413,
      "ucent": 2414,
      "Ġsum": 2415,
      "Ġcashew": 2416,
      "Ġquart": 2417,
      "Ġmeasure": 2418,
      "ional": 2419,
      "Ġtranslucent": 2420,
      "let": 2421,
      "oul": 2422,
      "Ġcross": 2423,
      "Ġscallion": 2424,
      "Ġspri": 2425,
      "Ġamong": 2426,
      "fish": 2427,
      "Ġbund": 2428,
      "ably": 2429,
      "ix": 2430,
      "Ġalternately": 2431,
      "Ġmoderate": 2432,
      "ial": 2433,
      "Ġgrate": 2434,
      "Ġmeringue": 2435,
      "fla": 2436,
      "Ġcouscous": 2437,
      "Ġsprouts": 2438,
      "Ġwild": 2439,
      "Ġclear": 2440,
      "Ġroma": 2441,
      "Ġstar": 2442,
      "Ġchinese": 2443,
      "Ġpret": 2444,
      "Ġeat": 2445,
      "lined": 2446,
      "Ġeasily": 2447,
      "Ġconfectioner": 2448,
      "Ġtouch": 2449,
      "Ġsimmering": 2450,
      "outh": 2451,
      "ris": 2452,
      "Ġhole": 2453,
      "Ġpa": 2454,
      "Ġcucumbers": 2455,
      "Ġfoam": 2456,
      "Ġpeanuts": 2457,
      "velo": 2458,
      "Ġpears": 2459,
      "Ġfrit": 2460,
      "Ġdepending": 2461,
      "Ġcrescent": 2462,
      "ala": 2463,
      "ctive": 2464,
      "Ġflore": 2465,
      "ti": 2466,
      "Ġchif": 2467,
      "bq": 2468,
      "iano": 2469,
      "ssels": 2470,
      "Ġcome": 2471,
      "aster": 2472,
      "you": 2473,
      "but": 2474,
      "Ġboiler": 2475,
      "Ġleek": 2476,
      "Ġmor": 2477,
      "Ġeng": 2478,
      "Ġgrape": 2479,
      "Ġveal": 2480,
      "Ġpimento": 2481,
      "Ġsli": 2482,
      "Ġfingers": 2483,
      "'re": 2484,
      "rink": 2485,
      "Ġroot": 2486,
      "Ġthinly": 2487,
      "Ġbrandy": 2488,
      "Ġcob": 2489,
      "Ġcored": 2490,
      "stru": 2491,
      "Ġladle": 2492,
      "Ġcircle": 2493,
      "aker": 2494,
      "Ġbbq": 2495,
      "amom": 2496,
      "Ġremoving": 2497,
      "Ġhow": 2498,
      "Ġstarts": 2499,
      "Ġfe": 2500,
      "Ġbeets": 2501,
      "med": 2502,
      "Ġmayo": 2503,
      "Ġflavoring": 2504,
      "men": 2505,
      "ko": 2506,
      "Ġsticky": 2507,
      "ished": 2508,
      "llo": 2509,
      "ried": 2510,
      "Ġmoist": 2511,
      "Ġpoppy": 2512,
      "top": 2513,
      "Ġbran": 2514,
      "Ġsticks": 2515,
      "Ġel": 2516,
      "Ġflavors": 2517,
      "Ġlook": 2518,
      "Ġhazel": 2519,
      "Ġpossible": 2520,
      "Ġden": 2521,
      "Ġmarinated": 2522,
      "Ġsol": 2523,
      "Ġinstru": 2524,
      "ashion": 2525,
      "Ġstems": 2526,
      "Ġcutter": 2527,
      "Ġ'": 2528,
      "Ġsummer": 2529,
      "Ġscallops": 2530,
      "Ġhalfway": 2531,
      "scotch": 2532,
      "Ġim": 2533,
      "ild": 2534,
      "Ġcoarse": 2535,
      "Ġcardamom": 2536,
      "Ġasse": 2537,
      "Ġcheesy": 2538,
      "Ġ27": 2539,
      "Ġsna": 2540,
      "umm": 2541,
      "Ġlee": 2542,
      "Ġthai": 2543,
      "Ġhel": 2544,
      "Ġindividual": 2545,
      "Ġdipping": 2546,
      "Ġblueberries": 2547,
      "Ġduck": 2548,
      "Ġincrease": 2549,
      "Ġcoating": 2550,
      "Ġgrand": 2551,
      "Ġsugars": 2552,
      "Ġbutterscotch": 2553,
      "Ġskewers": 2554,
      "Ġthaw": 2555,
      "Ġgrind": 2556,
      "tta": 2557,
      "Ġcareful": 2558,
      "Ġsec": 2559,
      "Ġgenerously": 2560,
      "Ġwon": 2561,
      "ially": 2562,
      "cha": 2563,
      "sses": 2564,
      "ove": 2565,
      "Ġsieve": 2566,
      "odka": 2567,
      "form": 2568,
      "Ġscraping": 2569,
      "Ġfig": 2570,
      "Ġpickles": 2571,
      "Ġdegree": 2572,
      "Ġbetter": 2573,
      "Ġbutternut": 2574,
      "Ġduring": 2575,
      "Ġru": 2576,
      "Ġbreadcrumbs": 2577,
      "Ġvodka": 2578,
      "Ġunbaked": 2579,
      "Ġ28": 2580,
      "Ġyield": 2581,
      "Ġconcent": 2582,
      "Ġblo": 2583,
      "12": 2584,
      "Ġtap": 2585,
      "Ġmandarin": 2586,
      "Ġspiced": 2587,
      "Ġuncover": 2588,
      "Ġscallop": 2589,
      "sen": 2590,
      "Ġcarton": 2591,
      "Ġdozen": 2592,
      "mel": 2593,
      "Ġmolasse": 2594,
      "Ġenglish": 2595,
      "Ġlentils": 2596,
      "Ġchuck": 2597,
      "nda": 2598,
      "Ġgive": 2599,
      "Ġclam": 2600,
      "ory": 2601,
      "Ġbox": 2602,
      "Ġkernel": 2603,
      "que": 2604,
      "Ġiron": 2605,
      "Ġportion": 2606,
      "Ġleeks": 2607,
      "Ġcrush": 2608,
      "itz": 2609,
      "Ġslaw": 2610,
      "Ġrot": 2611,
      "Ġchily": 2612,
      "Ġleft": 2613,
      "Ġnoodle": 2614,
      "Ġabove": 2615,
      "Ġthru": 2616,
      "Ġlob": 2617,
      "bl": 2618,
      "Ġserved": 2619,
      "Ġdumplings": 2620,
      "Ġpopcorn": 2621,
      "Ġmolasses": 2622,
      "Ġshred": 2623,
      "Ġworking": 2624,
      "Ġlobster": 2625,
      "Ġamer": 2626,
      "Ġrefrigerated": 2627,
      "Ġfully": 2628,
      "Ġ$": 2629,
      "Ġke": 2630,
      "Ġdoubled": 2631,
      "rained": 2632,
      "Ġloosely": 2633,
      "ons": 2634,
      "agon": 2635,
      "anish": 2636,
      "Ġbeet": 2637,
      "ered": 2638,
      "Ġrectangle": 2639,
      "Ġcandied": 2640,
      "Ġfle": 2641,
      "ara": 2642,
      "Ġtil": 2643,
      "Ġlemonade": 2644,
      "Ġrounds": 2645,
      "Ġcalor": 2646,
      "Ġsuper": 2647,
      "Ġbour": 2648,
      "Ġquarter": 2649,
      "Ġjo": 2650,
      "mis": 2651,
      "press": 2652,
      "Ġcrabmeat": 2653,
      "Ġ,": 2654,
      "Ġdiagon": 2655,
      "Ġlim": 2656,
      "Ġflaked": 2657,
      "Ġyields": 2658,
      "ross": 2659,
      "Ġinstructions": 2660,
      "Ġmach": 2661,
      "Ġstarting": 2662,
      "Ġcrout": 2663,
      "Ġclose": 2664,
      "Ġloin": 2665,
      "Ġbur": 2666,
      "Ġcooling": 2667,
      "Ġdoll": 2668,
      "uten": 2669,
      "Ġseaf": 2670,
      "Ġcats": 2671,
      "Ġopt": 2672,
      "iut": 2673,
      "Ġpr": 2674,
      "Ġmetal": 2675,
      "Ġthird": 2676,
      "Ġtam": 2677,
      "iutto": 2678,
      "Ġmira": 2679,
      "uted": 2680,
      "Ġcatsup": 2681,
      "Ġsolid": 2682,
      "sciutto": 2683,
      "Ġenvelo": 2684,
      "rs": 2685,
      "umps": 2686,
      "Ġcrosswise": 2687,
      "Ġdente": 2688,
      "Ġmoiste": 2689,
      "Ġmiracle": 2690,
      "Ġprosciutto": 2691,
      "ither": 2692,
      "Ġpancake": 2693,
      "Ġmoistened": 2694,
      "cup": 2695,
      "Ġgri": 2696,
      "Ġpee": 2697,
      "no": 2698,
      "Ġfinger": 2699,
      "Ġdates": 2700,
      "Ġtorn": 2701,
      "Ġseafood": 2702,
      "Ġmachine": 2703,
      "pre": 2704,
      "Ġ--": 2705,
      "Ġtorte": 2706,
      "Ġpita": 2707,
      "Ġcheeses": 2708,
      "Ġatt": 2709,
      "Ġpressing": 2710,
      "Ġasian": 2711,
      "ached": 2712,
      "Ġswirl": 2713,
      "cher": 2714,
      "Ġbubbles": 2715,
      "Ġma": 2716,
      "inning": 2717,
      "Ġcolander": 2718,
      "Ġlift": 2719,
      "Ġsaff": 2720,
      "Ġinver": 2721,
      "Ġglasses": 2722,
      "Ġbundt": 2723,
      "ips": 2724,
      "Ġale": 2725,
      "Ġtru": 2726,
      "Ġartichok": 2727,
      "Ġminiature": 2728,
      "Ġcaramelized": 2729,
      "Ġdeve": 2730,
      "rib": 2731,
      "lease": 2732,
      "Ġhandle": 2733,
      "Ġwarmed": 2734,
      "Ġcount": 2735,
      "ioli": 2736,
      "Ġbarley": 2737,
      "Ġdrink": 2738,
      "Ġconcentrate": 2739,
      "Ġsauer": 2740,
      "ars": 2741,
      "aves": 2742,
      "Ġorder": 2743,
      "orate": 2744,
      "ana": 2745,
      "Ġpole": 2746,
      "free": 2747,
      "Ġpor": 2748,
      "Ġtotal": 2749,
      "Ġrings": 2750,
      "Ġnor": 2751,
      "Ġbrisk": 2752,
      "Ġattach": 2753,
      "Ġreaches": 2754,
      "Ġoun": 2755,
      "quick": 2756,
      "Ġwedg": 2757,
      "Ġlin": 2758,
      "Ġbrownie": 2759,
      "style": 2760,
      "ages": 2761,
      "Ġsqueezed": 2762,
      "nta": 2763,
      "Ġeither": 2764,
      "ank": 2765,
      "Ġpickled": 2766,
      "kraut": 2767,
      "Ġjuli": 2768,
      "ina": 2769,
      "Ġfilled": 2770,
      "afe": 2771,
      "Ġundrained": 2772,
      "Ġpickle": 2773,
      "Ġter": 2774,
      "bb": 2775,
      "Ġpolenta": 2776,
      "Ġslivered": 2777,
      "Ġcast": 2778,
      "Ġcrumbly": 2779,
      "Ġgluten": 2780,
      "risp": 2781,
      "sized": 2782,
      "Ġmild": 2783,
      "Ġclams": 2784,
      "Ġling": 2785,
      "Ġnew": 2786,
      "Ġstrainer": 2787,
      "Ġbourbon": 2788,
      "Ġcracked": 2789,
      "40": 2790,
      "Ġresem": 2791,
      "Ġmeasuring": 2792,
      "Ġloosen": 2793,
      "Ġwould": 2794,
      "Ġchestnuts": 2795,
      "Ġchickpeas": 2796,
      "Ġsauerkraut": 2797,
      "Ġamerican": 2798,
      "igin": 2799,
      "Ġcoarsely": 2800,
      "chi": 2801,
      "aki": 2802,
      "qt": 2803,
      "Ġcreate": 2804,
      "Ġton": 2805,
      "Ġtwice": 2806,
      "Ġorang": 2807,
      "tender": 2808,
      "Ġdred": 2809,
      "oriz": 2810,
      "Ġmom": 2811,
      "ots": 2812,
      "Ġmou": 2813,
      "Ġrame": 2814,
      "Ġdist": 2815,
      "Ġportions": 2816,
      "ita": 2817,
      "Ġent": 2818,
      "Ġskewer": 2819,
      "Ġskins": 2820,
      "ance": 2821,
      "Ġphy": 2822,
      "Ġsnow": 2823,
      "bler": 2824,
      "Ġbea": 2825,
      "Ġrunning": 2826,
      "Ġorigin": 2827,
      "roll": 2828,
      "orizo": 2829,
      "eness": 2830,
      "Ġbones": 2831,
      "Ġfra": 2832,
      "Ġfashion": 2833,
      "Ġcrunchy": 2834,
      "Ġpartially": 2835,
      "Ġloaves": 2836,
      "Ġtry": 2837,
      "Ġgi": 2838,
      "Ġpistachio": 2839,
      "Ġlingu": 2840,
      "Ġsav": 2841,
      "Ġcit": 2842,
      "Ġcapers": 2843,
      "Ġflow": 2844,
      "ba": 2845,
      "Ġromaine": 2846,
      "Ġspanish": 2847,
      "Ġchorizo": 2848,
      "Ġnect": 2849,
      "Ġassemble": 2850,
      "Ġbisquick": 2851,
      "cream": 2852,
      "Ġphyllo": 2853,
      "Ġhealthy": 2854,
      "Ġpulp": 2855,
      "asting": 2856,
      "Ġacross": 2857,
      "Ġglazed": 2858,
      "rated": 2859,
      "ffles": 2860,
      "175": 2861,
      "Ġoutside": 2862,
      "Ġsaffron": 2863,
      "Ġbecome": 2864,
      "Ġwrapper": 2865,
      "Ġquiche": 2866,
      "Ġparm": 2867,
      "Ġraspberries": 2868,
      "Ġpier": 2869,
      "cau": 2870,
      "Ġpepperoni": 2871,
      "ren": 2872,
      "Ġ29": 2873,
      "Ġinvert": 2874,
      "oca": 2875,
      "Ġbeginning": 2876,
      "Ġhelp": 2877,
      "ucc": 2878,
      "Ġgriddle": 2879,
      "Ġreally": 2880,
      "Ġoriginal": 2881,
      "mix": 2882,
      "Ġfett": 2883,
      "Ġhol": 2884,
      "Ġcaj": 2885,
      "ative": 2886,
      "Ġnonfat": 2887,
      "aller": 2888,
      "Ġchunky": 2889,
      "Ġcore": 2890,
      "Ġsemis": 2891,
      "Ġfitted": 2892,
      "Ġsprayed": 2893,
      "Ġcav": 2894,
      "mint": 2895,
      "Ġgerman": 2896,
      "Ġdeveined": 2897,
      "Ġ200": 2898,
      "Ġsix": 2899,
      "Ġsemisweet": 2900,
      "Ġflu": 2901,
      "Ġcountry": 2902,
      "Ġlater": 2903,
      "Ġtexture": 2904,
      "Ġnear": 2905,
      "Ġparty": 2906,
      "Ġ180": 2907,
      "Ġmonth": 2908,
      "Ġdoneness": 2909,
      "Ġentire": 2910,
      "Ġdot": 2911,
      "mal": 2912,
      "Ġtopped": 2913,
      "kins": 2914,
      "Ġcajun": 2915,
      "ook": 2916,
      "50": 2917,
      "vel": 2918,
      "Ġoiled": 2919,
      "Ġdelight": 2920,
      "mas": 2921,
      "Ġpressure": 2922,
      "cial": 2923,
      "Ġsunflower": 2924,
      "Ġveggie": 2925,
      "Ġpos": 2926,
      "Ġdishes": 2927,
      "Ġzip": 2928,
      "gla": 2929,
      "âĢ": 2930,
      "Ġbecomes": 2931,
      "Ġmound": 2932,
      "cause": 2933,
      "not": 2934,
      "Ġroman": 2935,
      "clu": 2936,
      "inned": 2937,
      "Ġartichokes": 2938,
      "this": 2939,
      "Ġpreferably": 2940,
      "Ġmousse": 2941,
      "Ġseam": 2942,
      "Ġbagu": 2943,
      "Ġres": 2944,
      "Ġques": 2945,
      "Ġpanko": 2946,
      "Ġchowder": 2947,
      "Ġwilted": 2948,
      "Ġear": 2949,
      "ifted": 2950,
      "Ġreal": 2951,
      "Ġtable": 2952,
      "Ġsetting": 2953,
      "Ġmince": 2954,
      "Ġbrisket": 2955,
      "Ġpenne": 2956,
      "Ġvegan": 2957,
      "Ġtriang": 2958,
      "rist": 2959,
      "Ġda": 2960,
      "fect": 2961,
      "Ġcube": 2962,
      "Ġhearts": 2963,
      "Ġenvelope": 2964,
      "size": 2965,
      "Ġcirc": 2966,
      "Ġtins": 2967,
      "Ġrimmed": 2968,
      "dr": 2969,
      "met": 2970,
      "Ġsprigs": 2971,
      "Ġanise": 2972,
      "Ġdissolves": 2973,
      "bling": 2974,
      "Ġflesh": 2975,
      "Ġdredge": 2976,
      "Ġenchilada": 2977,
      "iso": 2978,
      "megran": 2979,
      "Ġcobbler": 2980,
      "Ġbecause": 2981,
      "Ġokra": 2982,
      "Ġpale": 2983,
      "rus": 2984,
      "Ġprote": 2985,
      "Ġcurd": 2986,
      "Ġpass": 2987,
      "Ġstewed": 2988,
      "Ġfire": 2989,
      "utney": 2990,
      "Ġactive": 2991,
      "ush": 2992,
      "safe": 2993,
      "ameter": 2994,
      "Ġsmoke": 2995,
      "Ġsoaked": 2996,
      "Ġwafer": 2997,
      "da": 2998,
      "Ġfluid": 2999,
      "Ġpomegran": 3000,
      "Ġritz": 3001,
      "iy": 3002,
      "Ġchutney": 3003,
      "Ġau": 3004,
      "lash": 3005,
      "Ġsou": 3006,
      "Ġbaguette": 3007,
      "Ġtra": 3008,
      "Ġsave": 3009,
      "ised": 3010,
      "Ġperfect": 3011,
      "Ġreheat": 3012,
      "jor": 3013,
      "bow": 3014,
      "Ġdecorate": 3015,
      "Ġet": 3016,
      "60": 3017,
      "Ġpretzel": 3018,
      "cetta": 3019,
      "efruit": 3020,
      "Ġstack": 3021,
      "Ġflame": 3022,
      "Ġingredient": 3023,
      "Ġpomegranate": 3024,
      "Ġvari": 3025,
      "Ġquarters": 3026,
      "Ġmoderately": 3027,
      "Ġpancetta": 3028,
      "Ġgrapefruit": 3029,
      "chino": 3030,
      "Ġdev": 3031,
      "Ġfam": 3032,
      "Ġgrnd": 3033,
      "Ġsticking": 3034,
      "Ġtest": 3035,
      "Ġchrist": 3036,
      "Ġvel": 3037,
      "presso": 3038,
      "Ġdash": 3039,
      "flav": 3040,
      "melon": 3041,
      "Ġrubber": 3042,
      "Ġpw": 3043,
      "Ġweeks": 3044,
      "Ġdistrib": 3045,
      "Ġstarch": 3046,
      "Ġpers": 3047,
      "ather": 3048,
      "Ġtossing": 3049,
      "Ġnat": 3050,
      "Ġlarger": 3051,
      "Ġmaras": 3052,
      "Ġappet": 3053,
      "Ġlumps": 3054,
      "'ll": 3055,
      "ipped": 3056,
      "Ġweek": 3057,
      "Ġmaraschino": 3058,
      "Ġmeatlo": 3059,
      "Ġsauteed": 3060,
      "Ġbasic": 3061,
      "Ġcitrus": 3062,
      "Ġbott": 3063,
      "Ġbubbling": 3064,
      "Ġfreshly": 3065,
      "Ġparts": 3066,
      "Ġpwdr": 3067,
      "Ġboiled": 3068,
      "Ġchilli": 3069,
      "bro": 3070,
      "Ġattachment": 3071,
      "Ġsmaller": 3072,
      "Ġry": 3073,
      "Ġsir": 3074,
      "Ġespresso": 3075,
      "Ġblackberry": 3076,
      "Ġwatermelon": 3077,
      "Ġpam": 3078,
      "Ġpies": 3079,
      "Ġcooky": 3080,
      "Ġvelve": 3081,
      "ban": 3082,
      "Ġholes": 3083,
      "sion": 3084,
      "Ġcrusty": 3085,
      "iyaki": 3086,
      "Ġpeppermint": 3087,
      "Ġpush": 3088,
      "ouse": 3089,
      "Ġlemons": 3090,
      "Ġbeing": 3091,
      "Ġromano": 3092,
      "Ġresembles": 3093,
      "Ġliver": 3094,
      "Ġcupcake": 3095,
      "ont": 3096,
      "stead": 3097,
      "ail": 3098,
      "itional": 3099,
      "Ġbath": 3100,
      "gu": 3101,
      "Ġnectar": 3102,
      "Ġprov": 3103,
      "Ġstring": 3104,
      "Ġapricots": 3105,
      "otto": 3106,
      "sters": 3107,
      "Ġspringform": 3108,
      "Ġsnack": 3109,
      "gr": 3110,
      "Ġenchiladas": 3111,
      "Ġposition": 3112,
      "Ġ250": 3113,
      "Ġsecure": 3114,
      "Ġkrisp": 3115,
      "Ġbasting": 3116,
      "ened": 3117,
      "Ġome": 3118,
      "Ġring": 3119,
      "Ġprotein": 3120,
      "Ġanchovy": 3121,
      "Ġlog": 3122,
      "Ġthread": 3123,
      "Ġbare": 3124,
      "Ġruss": 3125,
      "bu": 3126,
      "Ġrye": 3127,
      "joram": 3128,
      "Ġslicing": 3129,
      "flavored": 3130,
      "amb": 3131,
      "Ġoreo": 3132,
      "Ġmeatloaf": 3133,
      "fl": 3134,
      "pla": 3135,
      "Ġchard": 3136,
      "Ġchristmas": 3137,
      "Ġpeeled": 3138,
      "Ġmasala": 3139,
      "Ġmill": 3140,
      "Ġlevel": 3141,
      "Ġmarjoram": 3142,
      "Ġskinned": 3143,
      "Ġparmig": 3144,
      "Ġscatter": 3145,
      "Ġsirloin": 3146,
      "Ġlinguine": 3147,
      "Ġ*": 3148,
      "Ġjuiced": 3149,
      "Ġtail": 3150,
      "Ġinstead": 3151,
      "Ġ55": 3152,
      "root": 3153,
      "Ġsmoothie": 3154,
      "ey": 3155,
      "Ġfinished": 3156,
      "ange": 3157,
      "Ġrisotto": 3158,
      "arian": 3159,
      "uf": 3160,
      "irds": 3161,
      "Ġdiameter": 3162,
      "Ġinclu": 3163,
      "Ġusually": 3164,
      "Ġweed": 3165,
      "pes": 3166,
      "Ġcans": 3167,
      "umbo": 3168,
      "Ġmussels": 3169,
      "Ġetc": 3170,
      "Ġgratin": 3171,
      "Ġtight": 3172,
      "warm": 3173,
      "Ġclass": 3174,
      ":.": 3175,
      "Ġrounded": 3176,
      "Ġfall": 3177,
      "iry": 3178,
      "Ġtr": 3179,
      "Ġramekins": 3180,
      "Ġpra": 3181,
      "Ġgrapes": 3182,
      "Ġseedless": 3183,
      "Ġthighs": 3184,
      "lored": 3185,
      "Ġspecial": 3186,
      "Ġpinto": 3187,
      "Ġsavory": 3188,
      "dough": 3189,
      "she": 3190,
      "arpone": 3191,
      "Ġrelease": 3192,
      "Ġown": 3193,
      "Ġcm": 3194,
      "try": 3195,
      "Ġfloret": 3196,
      "Ġnatur": 3197,
      "Ġpal": 3198,
      "Ġhazelnut": 3199,
      "Ġpacket": 3200,
      "carpone": 3201,
      "Ġ32": 3202,
      "Ġrou": 3203,
      "port": 3204,
      "Ġjalapenos": 3205,
      "Ġtwist": 3206,
      "Ġgall": 3207,
      "don": 3208,
      "Ġrich": 3209,
      "Ġgranola": 3210,
      "ah": 3211,
      "Ġteriyaki": 3212,
      "Ġbrowning": 3213,
      "Ġhar": 3214,
      "Ġfraiche": 3215,
      "Ġdoesn": 3216,
      "Ġcod": 3217,
      "Ġmascarpone": 3218,
      "Ġcalories": 3219,
      "Ġclassic": 3220,
      "Ġstr": 3221,
      "Ġfettucc": 3222,
      "Ġsear": 3223,
      "Ġguac": 3224,
      "ipes": 3225,
      "Ġbitters": 3226,
      "18": 3227,
      "lets": 3228,
      "Ġverm": 3229,
      "Ġcroutons": 3230,
      "Ġtie": 3231,
      "amole": 3232,
      "Ġchamp": 3233,
      "45": 3234,
      "Ġvig": 3235,
      "Ġdollop": 3236,
      "Ġtre": 3237,
      "Ġdamp": 3238,
      "Ġfran": 3239,
      "ioca": 3240,
      "ik": 3241,
      "Ġven": 3242,
      "isin": 3243,
      "Ġprepar": 3244,
      "Ġbubble": 3245,
      "Ġappetiz": 3246,
      "Ġchickpea": 3247,
      "Ġmarmal": 3248,
      "Ġhrs": 3249,
      "away": 3250,
      "Ġmarmalade": 3251,
      "Ġtapioca": 3252,
      "Ġturns": 3253,
      "Ġcry": 3254,
      "ose": 3255,
      "Ġdre": 3256,
      "ath": 3257,
      "Ġguacamole": 3258,
      "Ġsausages": 3259,
      "Ġfashioned": 3260,
      "Ġpuffed": 3261,
      "Ġpeache": 3262,
      "Ġdiagonally": 3263,
      "Ġbrief": 3264,
      "Ġvigor": 3265,
      "Ġsprout": 3266,
      "Ġoz": 3267,
      "Ġsteamed": 3268,
      "Ġwipe": 3269,
      "ishes": 3270,
      "alf": 3271,
      "Ġshi": 3272,
      "Ġtoffee": 3273,
      "kon": 3274,
      "Ġpureed": 3275,
      "Ġ31": 3276,
      "ano": 3277,
      "Ġquarts": 3278,
      "Ġcryst": 3279,
      "Ġbriefly": 3280,
      "Ġrock": 3281,
      "Ġcreole": 3282,
      "ner": 3283,
      "Ġcrockpot": 3284,
      "Ġpeppercorns": 3285,
      "Ġbulk": 3286,
      "Ġupside": 3287,
      "Ġbor": 3288,
      "Ġheap": 3289,
      "Ġlu": 3290,
      "Ġparmigiano": 3291,
      "...": 3292,
      "Ġmiso": 3293,
      "Ġmal": 3294,
      "Ġfryer": 3295,
      "Ġsprinkling": 3296,
      "agne": 3297,
      "Ġcloth": 3298,
      "Ġorzo": 3299,
      "Ġemp": 3300,
      "Ġalf": 3301,
      "Ġpressed": 3302,
      "land": 3303,
      "Ġflax": 3304,
      "Ġovenproof": 3305,
      "Ġfile": 3306,
      "Ġpipe": 3307,
      "anese": 3308,
      "Ġnicely": 3309,
      "mat": 3310,
      "Ġpreserves": 3311,
      "Ġdog": 3312,
      "Ġdat": 3313,
      "Ġpic": 3314,
      "Ġbags": 3315,
      "Ġking": 3316,
      "ns": 3317,
      "Ġfil": 3318,
      "Ġprawn": 3319,
      "Ġlump": 3320,
      "Ġgrandma": 3321,
      "bet": 3322,
      "Ġsouth": 3323,
      "Ġvigorously": 3324,
      "Ġoptional": 3325,
      "Ġroughly": 3326,
      "fers": 3327,
      "Ġstro": 3328,
      "su": 3329,
      "aro": 3330,
      "Ġmors": 3331,
      "com": 3332,
      "Ġdream": 3333,
      "isture": 3334,
      "Ġglo": 3335,
      "Ġado": 3336,
      "Ġfoamy": 3337,
      "Ġorgan": 3338,
      "den": 3339,
      "Ġchampagne": 3340,
      "bas": 3341,
      "Ġpru": 3342,
      "Ġgranny": 3343,
      "Ġsouffle": 3344,
      "Ġtear": 3345,
      "Ġcaraway": 3346,
      "Ġpri": 3347,
      "bake": 3348,
      "iento": 3349,
      "Ġbaste": 3350,
      "oz": 3351,
      "Ġsho": 3352,
      "Ġirish": 3353,
      "cing": 3354,
      "Ġinsert": 3355,
      "ality": 3356,
      "Ġparsn": 3357,
      "Ġbatch": 3358,
      "Ġfarm": 3359,
      "Ġpimiento": 3360,
      "Ġleg": 3361,
      "Ġspoonfuls": 3362,
      "ines": 3363,
      "Ġpatty": 3364,
      "Ġcircles": 3365,
      "ifor": 3366,
      "Ġmoisture": 3367,
      "Ġspreading": 3368,
      "itake": 3369,
      "Ġbarely": 3370,
      "ila": 3371,
      "Ġscramble": 3372,
      "Ġwafers": 3373,
      "Ġrefried": 3374,
      "add": 3375,
      "Ġbrowns": 3376,
      "!!": 3377,
      "Ġfettuccine": 3378,
      "cm": 3379,
      "Ġcould": 3380,
      "Ġeye": 3381,
      "Ġorganic": 3382,
      "Ġcontinu": 3383,
      "Ġcoun": 3384,
      "Ġcaps": 3385,
      "Ġounces": 3386,
      "Ġtacos": 3387,
      "Ġswee": 3388,
      "Ġchestnut": 3389,
      "leslaw": 3390,
      "yd": 3391,
      "Ġmark": 3392,
      "Ġeasier": 3393,
      "Ġnatural": 3394,
      ");": 3395,
      "Ġscal": 3396,
      "Ġcrusts": 3397,
      "Ġcoleslaw": 3398,
      "Ġgru": 3399,
      "iday": 3400,
      "Ġunflavored": 3401,
      "Ġfi": 3402,
      "Ġass": 3403,
      "Ġeight": 3404,
      "Ġkettle": 3405,
      "Ġwrapped": 3406,
      "__": 3407,
      "Ġadobo": 3408,
      "Ġoverla": 3409,
      "Ġscon": 3410,
      "Ġchew": 3411,
      "oulder": 3412,
      "Ġholiday": 3413,
      "iny": 3414,
      "Ġdirectly": 3415,
      "kes": 3416,
      "Ġshoulder": 3417,
      "Ġcounter": 3418,
      "Ġending": 3419,
      "Ġgas": 3420,
      "Ġrav": 3421,
      "Ġtongs": 3422,
      "llini": 3423,
      "app": 3424,
      "cress": 3425,
      "ssel": 3426,
      "lent": 3427,
      "Ġmoisten": 3428,
      "Ġ#": 3429,
      "Ġsple": 3430,
      "Ġsil": 3431,
      "Ġflank": 3432,
      "Ġstop": 3433,
      "Ġwedge": 3434,
      "Ġslide": 3435,
      "iluted": 3436,
      "Ġcaper": 3437,
      "Ġcolored": 3438,
      "Ġfind": 3439,
      "Ġwatercress": 3440,
      "Ġscru": 3441,
      "Ġmarinara": 3442,
      "mit": 3443,
      "Ġquality": 3444,
      "fried": 3445,
      "Ġ36": 3446,
      "Ġcharred": 3447,
      "Ġcooks": 3448,
      "aved": 3449,
      "Ġty": 3450,
      "Ġsupre": 3451,
      "ama": 3452,
      "oultry": 3453,
      "Ġregi": 3454,
      "Ġtast": 3455,
      "Ġmat": 3456,
      "Ġmelon": 3457,
      "Ġwatch": 3458,
      "Ġshaker": 3459,
      "Ġsplenda": 3460,
      "king": 3461,
      "apanese": 3462,
      "Ġbittersweet": 3463,
      "Ġscones": 3464,
      "Ġdra": 3465,
      "Ġcent": 3466,
      "Ġpoultry": 3467,
      "Ġquite": 3468,
      "Ġou": 3469,
      "Ġflake": 3470,
      "Ġappe": 3471,
      "ggiano": 3472,
      "Ġbrine": 3473,
      "Ġdusting": 3474,
      "half": 3475,
      "Ġess": 3476,
      "orted": 3477,
      "!)": 3478,
      "rin": 3479,
      "Ġvegetarian": 3480,
      "Ġchoy": 3481,
      "aya": 3482,
      "Ġwait": 3483,
      "Ġpock": 3484,
      "Ġincorporate": 3485,
      "Ġdisk": 3486,
      "place": 3487,
      "Ġfamily": 3488,
      "oid": 3489,
      "Ġkaro": 3490,
      "like": 3491,
      "Ġesc": 3492,
      "Ġtah": 3493,
      "ummy": 3494,
      "Ġtoppings": 3495,
      "fro": 3496,
      "Ġavocados": 3497,
      "ways": 3498,
      "Ġdif": 3499,
      "Ġstone": 3500,
      "redo": 3501,
      "Ġkab": 3502,
      "Ġtortellini": 3503,
      "Ġremainder": 3504,
      "Ġmove": 3505,
      "Ġcurried": 3506,
      "Ġoysters": 3507,
      "Ġcorned": 3508,
      "Ġbraised": 3509,
      "Ġgenerous": 3510,
      "with": 3511,
      "Ġthrow": 3512,
      "Ġprick": 3513,
      "âĢĻ": 3514,
      "Ġcoals": 3515,
      "Ġdrops": 3516,
      "Ġpreserf": 3517,
      "Ġwhat": 3518,
      "Ġtbl": 3519,
      "Ġdistribute": 3520,
      "Ġlot": 3521,
      "Ġgerm": 3522,
      "Ġbrussels": 3523,
      "thick": 3524,
      "Ġtips": 3525,
      "rop": 3526,
      "onz": 3527,
      "Ġnach": 3528,
      "Ġpower": 3529,
      "ments": 3530,
      "Ġsupreme": 3531,
      "berg": 3532,
      "Ġveg": 3533,
      "Ġcat": 3534,
      "Ġsherbet": 3535,
      "Ġalfredo": 3536,
      "ella": 3537,
      "ison": 3538,
      "Ġbottoms": 3539,
      "Ġsection": 3540,
      "Ġpod": 3541,
      ".).": 3542,
      "Ġsifted": 3543,
      "tty": 3544,
      "Ġlard": 3545,
      "Ġstage": 3546,
      "cru": 3547,
      "Ġjapanese": 3548,
      "unt": 3549,
      "Ġliners": 3550,
      "Ġravioli": 3551,
      "Ġsout": 3552,
      "Ġhere": 3553,
      "Ġdiffe": 3554,
      "Ġgrits": 3555,
      "Ġluke": 3556,
      "Ġtriple": 3557,
      "Ġmonths": 3558,
      "Ġcor": 3559,
      "ashed": 3560,
      "35": 3561,
      "estle": 3562,
      "ations": 3563,
      "Ġfur": 3564,
      "cloth": 3565,
      "hern": 3566,
      "Ġdeli": 3567,
      "Ġshapes": 3568,
      "Ġlooks": 3569,
      "irt": 3570,
      "Ġwish": 3571,
      "shey": 3572,
      "Ġpitcher": 3573,
      "Ġblade": 3574,
      "min": 3575,
      "Ġavoid": 3576,
      "dy": 3577,
      "inder": 3578,
      "Ġsmith": 3579,
      "Ġfigs": 3580,
      "Ġsimp": 3581,
      "Ġfries": 3582,
      "Ġbrie": 3583,
      "Ġhershey": 3584,
      "Ġregisters": 3585,
      "Ġshiitake": 3586,
      "Ġens": 3587,
      "lt": 3588,
      "Ġmatch": 3589,
      "Ġtequ": 3590,
      "Ġlg": 3591,
      "Ġboils": 3592,
      "Ġsake": 3593,
      "illo": 3594,
      "Ġkern": 3595,
      "Ġshaking": 3596,
      "Ġkabo": 3597,
      "Ġgranul": 3598,
      "Ġtasty": 3599,
      "Ġlegs": 3600,
      "Ġwing": 3601,
      "Ġstream": 3602,
      "ified": 3603,
      "Ġflo": 3604,
      "Ġouter": 3605,
      "az": 3606,
      "Ġpaddle": 3607,
      "tel": 3608,
      "Ġhumm": 3609,
      "Ġmany": 3610,
      "Ġsouthern": 3611,
      "Ġsplash": 3612,
      "Ġrecipes": 3613,
      "Ġserran": 3614,
      "Ġwithin": 3615,
      "yere": 3616,
      "Ġbreaking": 3617,
      "Ġbelow": 3618,
      "Ġconten": 3619,
      "ao": 3620,
      "Ġbuff": 3621,
      "Ġfurther": 3622,
      "Ġsoups": 3623,
      "Ġtequila": 3624,
      "Ġsnap": 3625,
      "Ġpobl": 3626,
      "Ġcombin": 3627,
      "Ġtahini": 3628,
      "org": 3629,
      "Ġbitter": 3630,
      "Ġml": 3631,
      "Ġlayered": 3632,
      "ical": 3633,
      "Ġelbow": 3634,
      "Ġmanuf": 3635,
      "Ġgruyere": 3636,
      "Ġunble": 3637,
      "Ġ33": 3638,
      "Ġburrit": 3639,
      "Ġnight": 3640,
      "tain": 3641,
      "Ġpuffs": 3642,
      "acture": 3643,
      "Ġtomat": 3644,
      "Ġcour": 3645,
      "Ġfollowing": 3646,
      "Ġchef": 3647,
      "Ġsimply": 3648,
      "Ġmanufacture": 3649,
      "Ġyam": 3650,
      "Ġdas": 3651,
      "atever": 3652,
      "Ġgets": 3653,
      "Ġscalloped": 3654,
      "Ġplacing": 3655,
      "Ġlove": 3656,
      "Ġmaker": 3657,
      "Ġheaping": 3658,
      "Ġwonton": 3659,
      "seal": 3660,
      "Ġfar": 3661,
      "Ġhouse": 3662,
      "Ġwhis": 3663,
      "Ġlukewarm": 3664,
      "rane": 3665,
      "Ġcheesecloth": 3666,
      "whe": 3667,
      "Ġpc": 3668,
      "hyd": 3669,
      "Ġbottle": 3670,
      "Ġ160": 3671,
      "rent": 3672,
      "cheese": 3673,
      "Ġunbleached": 3674,
      "Ġmain": 3675,
      "Ġsprinkled": 3676,
      "Ġbaker": 3677,
      "ents": 3678,
      "Ġovercook": 3679,
      "Ġkernels": 3680,
      "Ġsteamer": 3681,
      "Ġsourdough": 3682,
      "Ġtater": 3683,
      "Ġhus": 3684,
      "wa": 3685,
      "Ġstrong": 3686,
      "Ġbulb": 3687,
      "cini": 3688,
      "Ġseparately": 3689,
      "Ġboned": 3690,
      "Ġsweeten": 3691,
      "Ġserrano": 3692,
      "Ġwaffles": 3693,
      "ence": 3694,
      "Ġgou": 3695,
      "Ġever": 3696,
      "eta": 3697,
      "Ġfeel": 3698,
      "Ġshaved": 3699,
      "Ġhi": 3700,
      "zels": 3701,
      "Ġpet": 3702,
      "Ġbarbecu": 3703,
      "Ġheatproof": 3704,
      "Ġgarden": 3705,
      "Ġela": 3706,
      "Ġsmoking": 3707,
      "Ġki": 3708,
      "Ġresul": 3709,
      "ants": 3710,
      "Ġwhatever": 3711,
      "Ġscald": 3712,
      "ami": 3713,
      "Ġsmashed": 3714,
      "Ġomit": 3715,
      "Ġclub": 3716,
      "Ġpretzels": 3717,
      "ought": 3718,
      "atively": 3719,
      "Ġvenison": 3720,
      "Ġdairy": 3721,
      "Ġgana": 3722,
      "alo": 3723,
      "Ġshortbread": 3724,
      "Ġganache": 3725,
      "Ġrose": 3726,
      "rise": 3727,
      "mend": 3728,
      "Ġwhiskey": 3729,
      "Ġfond": 3730,
      "Ġwaffle": 3731,
      "Ġradishes": 3732,
      "Ġsizz": 3733,
      "Ġherbed": 3734,
      "racha": 3735,
      "Ġmeth": 3736,
      "Ġgaram": 3737,
      "Ġchee": 3738,
      "Ġgrilling": 3739,
      "lli": 3740,
      "Ġcrepes": 3741,
      "Ġhoisin": 3742,
      "Ġblock": 3743,
      "Ġhazelnuts": 3744,
      "adilla": 3745,
      "Ġhalve": 3746,
      "vers": 3747,
      "Ġhaw": 3748,
      "Ġbites": 3749,
      "Ġroux": 3750,
      "see": 3751,
      "Ġspoonful": 3752,
      "Ġradish": 3753,
      "Ġjulien": 3754,
      "sticks": 3755,
      "bot": 3756,
      "Ġkind": 3757,
      "olone": 3758,
      "Ġdogs": 3759,
      "Ġtexas": 3760,
      "Ġ:": 3761,
      "Ġtough": 3762,
      "ards": 3763,
      "opt": 3764,
      "Ġcashews": 3765,
      "ex": 3766,
      "ios": 3767,
      "Ġfritters": 3768,
      "Ġlink": 3769,
      "Ġteaspoonfuls": 3770,
      "ient": 3771,
      "Ġprovolone": 3772,
      "Ġleftovers": 3773,
      "Ġtriangles": 3774,
      "Ġgn": 3775,
      "Ġpoke": 3776,
      "Ġfruits": 3777,
      "Ġlima": 3778,
      "Ġdifferent": 3779,
      "Ġstalks": 3780,
      "go": 3781,
      "oked": 3782,
      "Ġpican": 3783,
      "Ġcutlets": 3784,
      "Ġjulienned": 3785,
      "Ġrecom": 3786,
      "Ġpicante": 3787,
      "Ġsri": 3788,
      "Ġassorted": 3789,
      "ests": 3790,
      "Ġey": 3791,
      "ug": 3792,
      "Ġval": 3793,
      "90": 3794,
      "usel": 3795,
      "Ġfun": 3796,
      "Ġtang": 3797,
      "Ġuncooked": 3798,
      "Ġelastic": 3799,
      "Ġfan": 3800,
      "ello": 3801,
      "Ġhawai": 3802,
      "Ġbarbecued": 3803,
      "inches": 3804,
      "Ġcovering": 3805,
      "Ġhoriz": 3806,
      "ado": 3807,
      "Ġbok": 3808,
      "Ġgoo": 3809,
      "Ġdrum": 3810,
      "Ġquesadilla": 3811,
      "Ġbuffalo": 3812,
      "Ġagave": 3813,
      "Ġ34": 3814,
      "ided": 3815,
      "Ġcontainers": 3816,
      "ape": 3817,
      "Ġstockpot": 3818,
      "ito": 3819,
      "Ġstreusel": 3820,
      "Ġten": 3821,
      "Ġundiluted": 3822,
      "Ġworks": 3823,
      "Ġcann": 3824,
      "Ġbutton": 3825,
      "ken": 3826,
      "Ġbuttercream": 3827,
      "Ġadv": 3828,
      "Ġcurrant": 3829,
      "sealable": 3830,
      "Ġribbon": 3831,
      "Ġomelet": 3832,
      "Ġyu": 3833,
      "aque": 3834,
      "optional": 3835,
      "Ġsomet": 3836,
      "Ġko": 3837,
      "Ġwhiz": 3838,
      "Ġhummus": 3839,
      "coal": 3840,
      "Ġpops": 3841,
      "Ġallowing": 3842,
      "Ġopaque": 3843,
      "grass": 3844,
      "use": 3845,
      "Ġrecommend": 3846,
      "Ġinter": 3847,
      "Ġreggiano": 3848,
      "Ġhawaiian": 3849,
      "Ġpil": 3850,
      "Ġfrothy": 3851,
      "Ġgnoc": 3852,
      "Ġmort": 3853,
      "Ġsoon": 3854,
      "'ve": 3855,
      "Ġster": 3856,
      "Ġmirin": 3857,
      "Ġgarban": 3858,
      "igg": 3859,
      "Ġsat": 3860,
      "ople": 3861,
      "Ġamare": 3862,
      "Ġsnipped": 3863,
      "Ġessence": 3864,
      "flour": 3865,
      "Ġreach": 3866,
      "Ġcharcoal": 3867,
      "Ġsriracha": 3868,
      "bean": 3869,
      "ibut": 3870,
      "Ġsafe": 3871,
      "Ġmein": 3872,
      "Ġbird": 3873,
      "Ġgnocchi": 3874,
      "Ġcentre": 3875,
      "Ġpeople": 3876,
      "mber": 3877,
      "Ġdashe": 3878,
      "Ġtoothpicks": 3879,
      "Ġcannell": 3880,
      "Ġwin": 3881,
      "Ġchewy": 3882,
      "Ġmight": 3883,
      "Ġfinally": 3884,
      "ielbas": 3885,
      "Ġresealable": 3886,
      "Ġsolids": 3887,
      "Ġblending": 3888,
      "Ġzesty": 3889,
      "Ġpoached": 3890,
      "Ġtrout": 3891,
      "Ġrap": 3892,
      "Ġspark": 3893,
      "sugar": 3894,
      "Ġfiber": 3895,
      "rol": 3896,
      "bottom": 3897,
      "Ġnutr": 3898,
      "Ġplus": 3899,
      "Ġmorning": 3900,
      "Ġ[": 3901,
      "onzola": 3902,
      "Ġkielbas": 3903,
      "Ġfritt": 3904,
      "Ġlemongrass": 3905,
      "Ġpoblano": 3906,
      "Ġtrad": 3907,
      "orgonzola": 3908,
      "Ġforming": 3909,
      "Ġcornfla": 3910,
      "Ġpalm": 3911,
      "Ġok": 3912,
      "Ġhalibut": 3913,
      "Ġempty": 3914,
      "Ġpearl": 3915,
      "dried": 3916,
      "Ġintern": 3917,
      "Ġcontents": 3918,
      "Ġensure": 3919,
      "ket": 3920,
      "Ġliking": 3921,
      "Ġalways": 3922,
      "Ġdont": 3923,
      "ince": 3924,
      "Ġharden": 3925,
      "Ġmes": 3926,
      "Ġnotes": 3927,
      "ys": 3928,
      "Ġsaf": 3929,
      "Ġgorgonzola": 3930,
      "Ġcubed": 3931,
      "Ġmanufacturer": 3932,
      "Ġmethod": 3933,
      "Ġwo": 3934,
      "Ġbeater": 3935,
      "Ġalternating": 3936,
      "rel": 3937,
      "Ġseg": 3938,
      "bury": 3939,
      "Ġborder": 3940,
      "Ġkielbasa": 3941,
      "Ġpistachios": 3942,
      "Ġcorner": 3943,
      "Ġkiw": 3944,
      "Ġstrogano": 3945,
      "aff": 3946,
      "Ġfast": 3947,
      "Ġyummy": 3948,
      "tini": 3949,
      "Ġcavity": 3950,
      "Ġwinter": 3951,
      "Ġtakes": 3952,
      "Ġstroganoff": 3953,
      "Ġbrew": 3954,
      "Ġreplace": 3955,
      "Ġprod": 3956,
      "Ġburning": 3957,
      "Ġem": 3958,
      "Ġtot": 3959,
      "Ġhun": 3960,
      "Ġbagel": 3961,
      "Ġincluding": 3962,
      "iron": 3963,
      "orbet": 3964,
      "----": 3965,
      "Ġstored": 3966,
      "Ġgarbanzo": 3967,
      "Ġseven": 3968,
      "Ġdiscarding": 3969,
      "cut": 3970,
      "zy": 3971,
      "ounts": 3972,
      "Ġflours": 3973,
      "Ġappetizer": 3974,
      "Ġhealth": 3975,
      "Ġheating": 3976,
      "Ġsorbet": 3977,
      "Ġsalami": 3978,
      "Ġgent": 3979,
      "Ġgingerbread": 3980,
      "Ġkal": 3981,
      "Ġgallon": 3982,
      "Ġspace": 3983,
      "Ġrequ": 3984,
      "Ġlady": 3985,
      "ua": 3986,
      "180": 3987,
      "Ġbamb": 3988,
      "corino": 3989,
      "Ġevaporate": 3990,
      "Ġmolds": 3991,
      "Ġaro": 3992,
      "Ġcaster": 3993,
      "Ġlisted": 3994,
      "Ġspon": 3995,
      "Ġramen": 3996,
      "Ġamounts": 3997,
      "Ġhearty": 3998,
      "Ġpecorino": 3999,
      "Ġsections": 4000,
      "Ġsquar": 4001,
      "Ġtarts": 4002,
      "Ġfrittata": 4003,
      "tto": 4004,
      "Ġmine": 4005,
      "Ġgingerroot": 4006,
      "Ġacco": 4007,
      "Ġcy": 4008,
      "Ġ500": 4009,
      "Ġpretty": 4010,
      "Ġ100": 4011,
      "Ġbamboo": 4012,
      "Ġcrepe": 4013,
      "Ġ/": 4014,
      "Ġvelveeta": 4015,
      "Ġperson": 4016,
      "Ġplan": 4017,
      "Ġadvance": 4018,
      "Ġziplo": 4019,
      "ills": 4020,
      "Ġgentle": 4021,
      "shi": 4022,
      "Ġdiagonal": 4023,
      "ible": 4024,
      "Ġbuck": 4025,
      "Ġcant": 4026,
      "ontally": 4027,
      "Ġprun": 4028,
      "itas": 4029,
      "Ġdid": 4030,
      "Ġbulg": 4031,
      "16": 4032,
      "adam": 4033,
      "Ġthawed": 4034,
      "pare": 4035,
      "Ġtruffle": 4036,
      "Ġnearly": 4037,
      "Ġsponge": 4038,
      "Ġsilk": 4039,
      "Ġblanch": 4040,
      "chio": 4041,
      "Ġhorizontally": 4042,
      "Ġpy": 4043,
      "Ġpickling": 4044,
      "Ġbasket": 4045,
      "Ġflower": 4046,
      "Ġmars": 4047,
      "eway": 4048,
      "Ġoverlapping": 4049,
      "Ġhom": 4050,
      "bbed": 4051,
      "Ġformed": 4052,
      "Ġlat": 4053,
      "Ġpip": 4054,
      "Ġindian": 4055,
      "Ġtuck": 4056,
      "Ġthirds": 4057,
      "Ġsafeway": 4058,
      "Ġagainst": 4059,
      "Ġproof": 4060,
      "brown": 4061,
      "ailable": 4062,
      "ord": 4063,
      "Ġprawns": 4064,
      "Ġbrittle": 4065,
      "Ġcheez": 4066,
      "Ġhollow": 4067,
      "ca": 4068,
      "Ġaunt": 4069,
      "elf": 4070,
      "Ġcalorie": 4071,
      "Ġtester": 4072,
      "Ġgoing": 4073,
      "Ġsweetener": 4074,
      "Ġrare": 4075,
      "Ġimmer": 4076,
      "Ġbrussel": 4077,
      "butter": 4078,
      "Ġrusset": 4079,
      "Ġblood": 4080,
      "Ġfair": 4081,
      "Ġgloss": 4082,
      "Ġgarnished": 4083,
      "Ġlite": 4084,
      "Ġflorets": 4085,
      "Ġjer": 4086,
      "fa": 4087,
      "stuff": 4088,
      "esar": 4089,
      "glaze": 4090,
      "Ġplant": 4091,
      "Ġstarter": 4092,
      "Ġinternal": 4093,
      "Ġappear": 4094,
      "Ġkeeping": 4095,
      "ign": 4096,
      "Ġwraps": 4097,
      "Ġdun": 4098,
      "adamia": 4099,
      "Ġpurple": 4100,
      "Ġalternate": 4101,
      "Ġsteril": 4102,
      "Ġbottled": 4103,
      "mg": 4104,
      "Ġlids": 4105,
      "Ġslits": 4106,
      "Ġdor": 4107,
      "ically": 4108,
      "Ġmarsala": 4109,
      "Ġmust": 4110,
      "Ġsparkling": 4111,
      "Ġcoll": 4112,
      "Ġcaesar": 4113,
      "Ġweigh": 4114,
      "Ġbutterf": 4115,
      "Ġpatter": 4116,
      "Ġjulienne": 4117,
      "cal": 4118,
      "Ġcrouton": 4119,
      "Ġmartini": 4120,
      "Ġmasher": 4121,
      "set": 4122,
      "ume": 4123,
      "Ġtall": 4124,
      "Ġdipped": 4125,
      "Ġdrip": 4126,
      "Ġspare": 4127,
      "Ġinche": 4128,
      "Ġthink": 4129,
      "Ã©": 4130,
      ".,": 4131,
      "Ġmacadamia": 4132,
      "Ġfr": 4133,
      "Ġ0": 4134,
      "Ġsteep": 4135,
      "Ġdeviled": 4136,
      "Ġqt": 4137,
      "Ġraise": 4138,
      "Ġpile": 4139,
      "Ġwhere": 4140,
      "Ġfollowed": 4141,
      "Ġyo": 4142,
      "uri": 4143,
      "amata": 4144,
      "except": 4145,
      "Ġrapid": 4146,
      "Ġbought": 4147,
      "alia": 4148,
      "hydrate": 4149,
      "Ġ).": 4150,
      "uty": 4151,
      "Ġbed": 4152,
      "Ġvermouth": 4153,
      "Ġtraditional": 4154,
      "Ġze": 4155,
      "Ġounce": 4156,
      "Ġdai": 4157,
      "Ġamaretto": 4158,
      "Ġpral": 4159,
      "Ġbulgur": 4160,
      "Ġjumbo": 4161,
      "down": 4162,
      "Ġthicker": 4163,
      "Ġlip": 4164,
      "fre": 4165,
      "Ġgin": 4166,
      "atine": 4167,
      "190": 4168,
      "Ġlimes": 4169,
      "ura": 4170,
      "Ġkey": 4171,
      "sterol": 4172,
      "Ġfinal": 4173,
      "hi": 4174,
      "iment": 4175,
      "mold": 4176,
      "Ġkeeps": 4177,
      "Ġavailable": 4178,
      "Ġchole": 4179,
      "bottomed": 4180,
      "Ġcompo": 4181,
      "Ġthroughout": 4182,
      "Ġsquid": 4183,
      "Ġsteel": 4184,
      "Ġvis": 4185,
      "Ġbrushing": 4186,
      "Ġlasagne": 4187,
      "entation": 4188,
      "Ġhair": 4189,
      "Ġmot": 4190,
      "bed": 4191,
      "Ġliber": 4192,
      "rex": 4193,
      "apia": 4194,
      "Ġcane": 4195,
      "Ġtiny": 4196,
      "Ġvol": 4197,
      "Ġnever": 4198,
      "abl": 4199,
      "Ġfilet": 4200,
      "vies": 4201,
      "Ġcannellini": 4202,
      "Ġthose": 4203,
      "Ġdeglaze": 4204,
      "acing": 4205,
      "ng": 4206,
      "Ġmortar": 4207,
      "ane": 4208,
      "ico": 4209,
      "Ġblan": 4210,
      "Ġsealed": 4211,
      "Ġkalamata": 4212,
      "ls": 4213,
      "Ġunw": 4214,
      "Ġstor": 4215,
      "Ġburner": 4216,
      "fle": 4217,
      "Ġsprig": 4218,
      "Ġtype": 4219,
      "Ġcholesterol": 4220,
      "ssom": 4221,
      "Ġtilapia": 4222,
      "Ġmediter": 4223,
      "Ġvalley": 4224,
      "Ġtel": 4225,
      "Ġgrinder": 4226,
      "Ġreads": 4227,
      "Ġben": 4228,
      "Ġkrispy": 4229,
      "ses": 4230,
      "Ġcer": 4231,
      "Ġmag": 4232,
      "rect": 4233,
      "ranean": 4234,
      "Ġpyrex": 4235,
      "Ġendive": 4236,
      "Ġpierce": 4237,
      "stuffed": 4238,
      "Ġqueso": 4239,
      "Ġslo": 4240,
      "Ġpattern": 4241,
      "hee": 4242,
      "portant": 4243,
      "Ġpilaf": 4244,
      "Ġmocha": 4245,
      "Ġpreparing": 4246,
      "Ġporto": 4247,
      "Ġ37": 4248,
      "ph": 4249,
      "abi": 4250,
      "Ġaccomp": 4251,
      "Ġcaramels": 4252,
      "Ġanchovies": 4253,
      "rence": 4254,
      "**": 4255,
      "Ġunmold": 4256,
      "mol": 4257,
      "umb": 4258,
      "Ġmediterranean": 4259,
      "Ġneck": 4260,
      "vals": 4261,
      "ans": 4262,
      "aving": 4263,
      "Ġparfa": 4264,
      "ib": 4265,
      "nog": 4266,
      "Ġplums": 4267,
      "Ġthickest": 4268,
      "Ġblossom": 4269,
      "Ġshimmer": 4270,
      "Ġnap": 4271,
      "Ġsurp": 4272,
      "Ġcools": 4273,
      "bone": 4274,
      "Ġcompote": 4275,
      "val": 4276,
      "Ġpiping": 4277,
      "ups": 4278,
      "Ġgelatine": 4279,
      "Ġkiwi": 4280,
      "cot": 4281,
      "Ġcolour": 4282,
      "Ġspir": 4283,
      "Ġphot": 4284,
      "Ġgum": 4285,
      "ounce": 4286,
      "sal": 4287,
      "act": 4288,
      "duty": 4289,
      "Ġeggnog": 4290,
      "Ġportob": 4291,
      "Ġunroll": 4292,
      "Ġkah": 4293,
      "Ġdiet": 4294,
      "Ġpopped": 4295,
      "ghurt": 4296,
      "Ġflavour": 4297,
      "Ġparsnips": 4298,
      "Ġii": 4299,
      "Ġplent": 4300,
      "dden": 4301,
      "water": 4302,
      "Ġaccompan": 4303,
      "Ġdrizzling": 4304,
      "Ġour": 4305,
      "Ġfairly": 4306,
      "len": 4307,
      "ira": 4308,
      "Ġtastes": 4309,
      "200": 4310,
      "nia": 4311,
      "Ġcraw": 4312,
      "heit": 4313,
      "Ġtablespoonfuls": 4314,
      "Ġ%": 4315,
      "Ġyoghurt": 4316,
      "mati": 4317,
      "Ġstay": 4318,
      "Ġglossy": 4319,
      "Ġplenty": 4320,
      "Ġbroken": 4321,
      "Ġstret": 4322,
      "Ġcrow": 4323,
      "Ġimportant": 4324,
      "Ġtrop": 4325,
      "Ġmeats": 4326,
      "Ġlogs": 4327,
      "ada": 4328,
      "Ġcalifor": 4329,
      "Ġbal": 4330,
      "Ġnutritional": 4331,
      "\".": 4332,
      "Ġpoin": 4333,
      "Ġfaj": 4334,
      "Ġslush": 4335,
      "ettes": 4336,
      "Ġvegetabl": 4337,
      "Ġsch": 4338,
      "Ġkahl": 4339,
      "ero": 4340,
      "anger": 4341,
      "Ġpierced": 4342,
      "stern": 4343,
      "amel": 4344,
      "yer": 4345,
      "Ġcalifornia": 4346,
      "Ġvid": 4347,
      "parent": 4348,
      "Ġcarbo": 4349,
      "Ġcling": 4350,
      "Ġkept": 4351,
      "Ġversion": 4352,
      "ens": 4353,
      "Ġtested": 4354,
      "Ġbasmati": 4355,
      "Ġtrifle": 4356,
      "Ġacorn": 4357,
      "ever": 4358,
      "Ġ+": 4359,
      "Ġghee": 4360,
      "Ġkahlua": 4361,
      "sides": 4362,
      "cooked": 4363,
      "Ġgather": 4364,
      "Ġsoaking": 4365,
      "Ġtransparent": 4366,
      "Ġrunny": 4367,
      "Ġspears": 4368,
      "serve": 4369,
      "Ġfondue": 4370,
      "Ġscrambled": 4371,
      "Â°,": 4372,
      "Ġcrawfish": 4373,
      "Ġstead": 4374,
      "Ġcontinuously": 4375,
      "Ġiced": 4376,
      "Ġgumbo": 4377,
      "Ġloose": 4378,
      "Ġpint": 4379,
      "icchio": 4380,
      "nac": 4381,
      "wheat": 4382,
      "Ġscrubbed": 4383,
      "Ġwasabi": 4384,
      "Ġnacho": 4385,
      "Ġisland": 4386,
      "Ġliberally": 4387,
      "zn": 4388,
      "pepper": 4389,
      "Ġligh": 4390,
      "Ġpcs": 4391,
      "Ġpen": 4392,
      "Ġslit": 4393,
      "Ġscore": 4394,
      "Ġtropical": 4395,
      "Ġcantal": 4396,
      "medi": 4397,
      "Ġswed": 4398,
      "Ġyum": 4399,
      "Ġsauc": 4400,
      "Ġletting": 4401,
      "Ġmemb": 4402,
      "Ġ38": 4403,
      "Ġradicchio": 4404,
      "Ġbark": 4405,
      "Ġfrzn": 4406,
      "Ġpol": 4407,
      "Ġwonder": 4408,
      "used": 4409,
      "blong": 4410,
      "ws": 4411,
      "Ġdu": 4412,
      "Ġbroiled": 4413,
      "ston": 4414,
      "Ġrig": 4415,
      "Ġcantaloup": 4416,
      "bur": 4417,
      "pur": 4418,
      "Ġrectangles": 4419,
      "ago": 4420,
      "Ġvidalia": 4421,
      "Ġgone": 4422,
      "Ġbel": 4423,
      "Ġhens": 4424,
      "Ġaut": 4425,
      "seed": 4426,
      "Ġorien": 4427,
      "Ġplantain": 4428,
      "arind": 4429,
      "Ġdoughnuts": 4430,
      "Ġoblong": 4431,
      "Ġmorsels": 4432,
      "Ġyukon": 4433,
      "Ġbol": 4434,
      "Ġreached": 4435,
      "Ġtamari": 4436,
      "Ġhock": 4437,
      "Ġcandies": 4438,
      "Ġkno": 4439,
      "Ġarb": 4440,
      "illsbury": 4441,
      "Ġcenters": 4442,
      "Ġshaped": 4443,
      "Ġthumb": 4444,
      "Ġones": 4445,
      "medium": 4446,
      "ho": 4447,
      "di": 4448,
      "Ġoriental": 4449,
      "makes": 4450,
      "omme": 4451,
      "Ġrotel": 4452,
      "Ġtaking": 4453,
      "Ġhealthier": 4454,
      "Ġeating": 4455,
      "urated": 4456,
      "Ġseared": 4457,
      "Ġfolding": 4458,
      "Ġ170": 4459,
      "approx": 4460,
      "Ġrussian": 4461,
      "Ġhidden": 4462,
      "Ġsloppy": 4463,
      "Ġbright": 4464,
      "Ġedam": 4465,
      "Ġaid": 4466,
      "Ġvolume": 4467,
      "Ġfloat": 4468,
      "Ġaioli": 4469,
      "Ġresults": 4470,
      "Ġverde": 4471,
      "Ġplaced": 4472,
      "Ġturnip": 4473,
      "Ġstraight": 4474,
      "Ġstretch": 4475,
      "Ġcatfish": 4476,
      "Ġsterilized": 4477,
      "Ġsuff": 4478,
      "Ġholds": 4479,
      "garlic": 4480,
      "Ġtamarind": 4481,
      "ouille": 4482,
      "Ġpapaya": 4483,
      "ready": 4484,
      "mm": 4485,
      "Ġredu": 4486,
      "tact": 4487,
      "itions": 4488,
      "Ġenc": 4489,
      "Ġintervals": 4490,
      "imate": 4491,
      "cer": 4492,
      "Ġsushi": 4493,
      "Ġcrost": 4494,
      "utella": 4495,
      "covered": 4496,
      "Ġseems": 4497,
      "Ġ275": 4498,
      "Ġcarbohydrate": 4499,
      "Ġsnapper": 4500,
      "Ġknow": 4501,
      "fit": 4502,
      "illy": 4503,
      "Ġsprinkles": 4504,
      "Ġcantaloupe": 4505,
      "Ġach": 4506,
      "Ġsla": 4507,
      "Ġrotating": 4508,
      "lette": 4509,
      "eseed": 4510,
      "ere": 4511,
      "Ġstain": 4512,
      "Ġeggplants": 4513,
      "icient": 4514,
      "Ġintact": 4515,
      "Ġsmell": 4516,
      "Ġtruffles": 4517,
      "Ġportobello": 4518,
      "scar": 4519,
      "Ġquesadillas": 4520,
      "renheit": 4521,
      "Ġemul": 4522,
      "Ġtangy": 4523,
      "mine": 4524,
      "Ġ90": 4525,
      "stir": 4526,
      "rare": 4527,
      "Ġshan": 4528,
      "Ġporcini": 4529,
      "Ġtent": 4530,
      "Ġoscar": 4531,
      "Ġmary": 4532,
      "Ġnutella": 4533,
      "Ġlipton": 4534,
      "Ġkrispies": 4535,
      "ors": 4536,
      "oper": 4537,
      "Ġswedish": 4538,
      "Ġcrimp": 4539,
      "Ġpulled": 4540,
      "Ġsince": 4541,
      "Ġfah": 4542,
      "Ġpocket": 4543,
      "Ġhad": 4544,
      "Ġlooking": 4545,
      "'m": 4546,
      "Ġcolby": 4547,
      "Ġsund": 4548,
      "rea": 4549,
      "Ġmorsel": 4550,
      "iffon": 4551,
      "Ġpillsbury": 4552,
      "Ġgiven": 4553,
      "Ġcorners": 4554,
      "Ġsooper": 4555,
      "Ġsurprise": 4556,
      "Ġyet": 4557,
      "Ġsink": 4558,
      "Ġwere": 4559,
      "Ġfahrenheit": 4560,
      "Ġhandful": 4561,
      "icelli": 4562,
      "abet": 4563,
      "Ġconsomme": 4564,
      "Ġstrained": 4565,
      "Ġpk": 4566,
      "Ġfrank": 4567,
      "Ġgoes": 4568,
      "day": 4569,
      "Ġpreparation": 4570,
      "Ġvary": 4571,
      "Ġchiffon": 4572,
      "Ġmayer": 4573,
      "Ġjerk": 4574,
      "Ġkabobs": 4575,
      "Ġfingert": 4576,
      "chetta": 4577,
      "Ġscalded": 4578,
      "Ġnori": 4579,
      "Ġedamame": 4580,
      "Ġcasing": 4581,
      "Ġhominy": 4582,
      "aled": 4583,
      "Ġpou": 4584,
      "Ġmushy": 4585,
      "res": 4586,
      "Ġele": 4587,
      "Ġchan": 4588,
      "Ġpestle": 4589,
      "Ġvermicelli": 4590,
      "Ġimmersion": 4591,
      "roasted": 4592,
      "gnac": 4593,
      "Ġ165": 4594,
      "Ġrectangular": 4595,
      "Ġrabb": 4596,
      "Ġact": 4597,
      "Ġsufficient": 4598,
      "Ġmacaroon": 4599,
      "Ġgrams": 4600,
      "ji": 4601,
      "Ġbass": 4602,
      "hot": 4603,
      "ctin": 4604,
      "Ġatop": 4605,
      "Ġhab": 4606,
      "Ġcourse": 4607,
      "Ġcac": 4608,
      "vender": 4609,
      "Ġlowest": 4610,
      "Ġclosed": 4611,
      "350": 4612,
      "Ġpoach": 4613,
      "end": 4614,
      "Ġcognac": 4615,
      "Ġvariation": 4616,
      "Ġsmoky": 4617,
      "Ġ48": 4618,
      "Ġdirection": 4619,
      "mar": 4620,
      "ppos": 4621,
      "Ġpectin": 4622,
      "iffy": 4623,
      "idge": 4624,
      "Ġbiscot": 4625,
      "Ġsubmer": 4626,
      "mini": 4627,
      "Ġsq": 4628,
      "illos": 4629,
      "Ġsteady": 4630,
      "Ġlavender": 4631,
      "Ġmarble": 4632,
      "gy": 4633,
      "purpose": 4634,
      "reactive": 4635,
      "Ġtim": 4636,
      "Ġzested": 4637,
      "Ġsugg": 4638,
      "Ġkiss": 4639,
      "ili": 4640,
      "Ġpouring": 4641,
      "Ġbiscotti": 4642,
      "Ġjiffy": 4643,
      "Ġdoor": 4644,
      "Ġrough": 4645,
      "Ġnutty": 4646,
      "ference": 4647,
      "Ġtrays": 4648,
      "nap": 4649,
      "ipping": 4650,
      "Ġalready": 4651,
      "Ġgro": 4652,
      "Ġworry": 4653,
      "nier": 4654,
      "Ġflaky": 4655,
      "Ġkool": 4656,
      "Ġlr": 4657,
      "Ġpods": 4658,
      "urry": 4659,
      "Ġvelvet": 4660,
      "quet": 4661,
      "Ġsnick": 4662,
      "Ġpeeler": 4663,
      "Ġcanning": 4664,
      "Ġputting": 4665,
      "Ġpas": 4666,
      "Ġbrus": 4667,
      "Ġpassion": 4668,
      "Ġturnips": 4669,
      "Ġrisen": 4670,
      "Ġconge": 4671,
      "sch": 4672,
      "Ġcombination": 4673,
      "work": 4674,
      "Ġlrg": 4675,
      "ilar": 4676,
      "Ġragu": 4677,
      "aven": 4678,
      "Ġide": 4679,
      "iana": 4680,
      "Ġproven": 4681,
      "va": 4682,
      "Ġdaikon": 4683,
      "Ġadap": 4684,
      "Ġtriangle": 4685,
      "box": 4686,
      "Ġbrewed": 4687,
      "Ġsautee": 4688,
      "Ġmelting": 4689,
      "Ġcaramelize": 4690,
      "member": 4691,
      "Ġpepperidge": 4692,
      "serves": 4693,
      "Ġprunes": 4694,
      "Ġsalty": 4695,
      "affin": 4696,
      "Ġdevil": 4697,
      "Ġliquids": 4698,
      "Ġkneading": 4699,
      "Ġmeant": 4700,
      "Ġpicked": 4701,
      "Ġscotch": 4702,
      "Ġparaffin": 4703,
      "Ġfont": 4704,
      "Ġpounds": 4705,
      "Ġpinche": 4706,
      "Ġlots": 4707,
      "weed": 4708,
      "Ġchex": 4709,
      "lime": 4710,
      "Ġdonut": 4711,
      "Ġupper": 4712,
      "Ġcole": 4713,
      "Ġjoh": 4714,
      "Ġrabbit": 4715,
      "Ġhen": 4716,
      "Ġproport": 4717,
      "Ġhell": 4718,
      "Ġmatzo": 4719,
      "Ġcrystal": 4720,
      "ured": 4721,
      "Ġtomatillos": 4722,
      "Ġlou": 4723,
      "Ġrigat": 4724,
      "Ġhusk": 4725,
      "Ġcarn": 4726,
      "Ġequally": 4727,
      "Ġhook": 4728,
      "fresh": 4729,
      "Ġge": 4730,
      "fashion": 4731,
      "Ġpizzas": 4732,
      "Ġchive": 4733,
      "Ġmarnier": 4734,
      "ues": 4735,
      "Ġyams": 4736,
      "ml": 4737,
      "minute": 4738,
      "Ġbruschetta": 4739,
      "crust": 4740,
      "Ġhaban": 4741,
      "cts": 4742,
      "Ġgingers": 4743,
      "egg": 4744,
      "Ġfound": 4745,
      "iest": 4746,
      "Ġsuggest": 4747,
      "ged": 4748,
      "ulled": 4749,
      "Ġsug": 4750,
      "Ġfontina": 4751,
      "Ġproced": 4752,
      "Ġshiny": 4753,
      "mann": 4754,
      "Ġburritos": 4755,
      "Ġevaporates": 4756,
      "'d": 4757,
      "Ġbelly": 4758,
      "Ġunifor": 4759,
      "itos": 4760,
      "Ġmug": 4761,
      "Ġneeds": 4762,
      "orean": 4763,
      "Ġgible": 4764,
      "esson": 4765,
      "Ġcutlet": 4766,
      "Ġparsnip": 4767,
      "cel": 4768,
      "Ġprocedure": 4769,
      "Ġwesson": 4770,
      "orange": 4771,
      "Ġmaintain": 4772,
      "Ġmesh": 4773,
      "Ġsimilar": 4774,
      "Ġfourth": 4775,
      "Ġlayering": 4776,
      "Ġaccent": 4777,
      "Ġrigatoni": 4778,
      "Ġforks": 4779,
      "iness": 4780,
      "orm": 4781,
      "Ġladyf": 4782,
      "Ġuniform": 4783,
      "Ġgouda": 4784,
      "ceed": 4785,
      "Ġgingersnap": 4786,
      "Ġheaven": 4787,
      "Ġprodu": 4788,
      "Ġparing": 4789,
      "fine": 4790,
      "glazed": 4791,
      "Ġpackets": 4792,
      "Ġmcc": 4793,
      "Ġsprings": 4794,
      "Ġscor": 4795,
      "Ġ70": 4796,
      "Ġrotini": 4797,
      "Ġpreferred": 4798,
      "Ġcacao": 4799,
      "Ġmoro": 4800,
      "Ġoval": 4801,
      "Ġ150": 4802,
      "Ġblackened": 4803,
      "Ġcreating": 4804,
      "ica": 4805,
      "Ġshanks": 4806,
      "Ġwrappers": 4807,
      "bel": 4808,
      "Ġspear": 4809,
      "Ġtid": 4810,
      "Ġovermix": 4811,
      "Ġmg": 4812,
      "Ġci": 4813,
      "iti": 4814,
      "ux": 4815,
      "Ġinf": 4816,
      "Ġcuts": 4817,
      "mic": 4818,
      "Ġgetting": 4819,
      "Ġbolog": 4820,
      "Ġrequired": 4821,
      "ccan": 4822,
      "Ġcarbon": 4823,
      "Ġthing": 4824,
      "Ġmounds": 4825,
      "Ġpate": 4826,
      "Ġcrowd": 4827,
      "matic": 4828,
      "jo": 4829,
      "mesh": 4830,
      "season": 4831,
      "Ġprior": 4832,
      "Ġplease": 4833,
      "Ġhulled": 4834,
      "Ġbi": 4835,
      "imum": 4836,
      "Ġkim": 4837,
      "Ġtreats": 4838,
      "Ġstanding": 4839,
      "Ġvariet": 4840,
      "tes": 4841,
      "Ġturned": 4842,
      "Ġgrains": 4843,
      "Ġserrated": 4844,
      "Ġgour": 4845,
      "Ġboston": 4846,
      "Ġcarb": 4847,
      "burg": 4848,
      "Ġwien": 4849,
      "Ġadditions": 4850,
      "Ġvi": 4851,
      "Ġblackberries": 4852,
      "Ġlumpy": 4853,
      "Ġadapted": 4854,
      "ishe": 4855,
      "Ġflan": 4856,
      "Ġang": 4857,
      "Ġbuttery": 4858,
      "Ġpockets": 4859,
      "icama": 4860,
      "Ġbody": 4861,
      "Ġziploc": 4862,
      "Ġfingertips": 4863,
      "Ġmargarita": 4864,
      "Ġbottl": 4865,
      "Ġbouquet": 4866,
      "abetic": 4867,
      "Ġshaving": 4868,
      "Ġspiral": 4869,
      "Ġstainless": 4870,
      "Ġmeantime": 4871,
      "ius": 4872,
      "fashioned": 4873,
      "molina": 4874,
      "Ġiceberg": 4875,
      "Ġcrostini": 4876,
      "Ġoverh": 4877,
      "Ġsyrupy": 4878,
      "immon": 4879,
      "Ġsegments": 4880,
      "alle": 4881,
      "Ġtanger": 4882,
      "Ġmoroccan": 4883,
      "icotti": 4884,
      "Ġspots": 4885,
      "!).": 4886,
      "Ġpersimmon": 4887,
      "Ġdirt": 4888,
      "Ġportab": 4889,
      "rants": 4890,
      "pa": 4891,
      "Ġchia": 4892,
      "itch": 4893,
      "oom": 4894,
      "Ġjicama": 4895,
      "Ġoppos": 4896,
      "Ġgrit": 4897,
      "iago": 4898,
      "Ġchoose": 4899,
      "Ġmanicotti": 4900,
      "Ġduncan": 4901,
      "Ġthough": 4902,
      "Ġdefro": 4903,
      "Ġemuls": 4904,
      "Ġenclo": 4905,
      "Ġhabanero": 4906,
      "Ġburrito": 4907,
      "ggy": 4908,
      "Ġcoats": 4909,
      "Ġaromatic": 4910,
      "Ġvert": 4911,
      "Ġtidb": 4912,
      "Ġicebox": 4913,
      "Ġgrapeseed": 4914,
      "Ġsemolina": 4915,
      "Ġpinwhe": 4916,
      "Ġkat": 4917,
      "Ġtoward": 4918,
      "thern": 4919,
      "Ġrotate": 4920,
      "Ġland": 4921,
      "Ġwonderful": 4922,
      "Ġsausag": 4923,
      "Ġopening": 4924,
      "Ġpreference": 4925,
      "Ġpain": 4926,
      "Ġswir": 4927,
      "Ġfreezes": 4928,
      "Ġunwrap": 4929,
      "Ġbrick": 4930,
      "Ġziti": 4931,
      "ormick": 4932,
      "oli": 4933,
      "zing": 4934,
      "Ġoverhang": 4935,
      "Ġmiss": 4936,
      "ori": 4937,
      "Ġnorthern": 4938,
      "Ġwilt": 4939,
      "Ġchim": 4940,
      "sco": 4941,
      "Ġchess": 4942,
      "western": 4943,
      "Ġclumps": 4944,
      "Ġasiago": 4945,
      "Ġshimmering": 4946,
      "neath": 4947,
      "Ġdashi": 4948,
      "Ġtouched": 4949,
      "Ġunderneath": 4950,
      "Ġshow": 4951,
      "Ġpi": 4952,
      "Ġproceed": 4953,
      "Ġmccormick": 4954,
      "Ġpraline": 4955,
      "ki": 4956,
      "Ġmace": 4957,
      "Ġ39": 4958,
      "Ġlak": 4959,
      "anth": 4960,
      "Ġalternatively": 4961,
      "Ġhelps": 4962,
      "Ġremains": 4963,
      "ific": 4964,
      "bergine": 4965,
      "what": 4966,
      "Ġjuicy": 4967,
      "ect": 4968,
      "garian": 4969,
      "Ġsprinkl": 4970,
      "Ġcurrants": 4971,
      "Ġhin": 4972,
      "Ġcheeseburger": 4973,
      "Ġholding": 4974,
      "Ġotherwise": 4975,
      "Ġsmash": 4976,
      "Ġeyed": 4977,
      "Ġbrunch": 4978,
      "Ġflatbread": 4979,
      "Ġflipping": 4980,
      "Ġalongside": 4981,
      "Ġnestle": 4982,
      "Ġevoo": 4983,
      "Ġpig": 4984,
      "Ġfeed": 4985,
      "uxe": 4986,
      "Ġprocessed": 4987,
      "Ġproduct": 4988,
      "adian": 4989,
      "Ġdep": 4990,
      "Ġmass": 4991,
      "Ġvit": 4992,
      "note": 4993,
      "rapped": 4994,
      "Ġproper": 4995,
      "Ġremember": 4996,
      "nam": 4997,
      "Ġdeluxe": 4998,
      "bably": 4999,
      "Ġappetizers": 5000,
      "filled": 5001,
      "Ġmagic": 5002,
      "Ġbeaters": 5003,
      "Ġala": 5004,
      "Ġjigg": 5005,
      "Ġcroiss": 5006,
      "gas": 5007,
      "Ġhowever": 5008,
      "Ġpoints": 5009,
      "Ġcooler": 5010,
      "Ġtag": 5011,
      "Ġsilic": 5012,
      "may": 5013,
      "ones": 5014,
      "Ġpickl": 5015,
      "Ġsword": 5016,
      "Ġkids": 5017,
      "Ġtomatillo": 5018,
      "Ġnug": 5019,
      "Ġsteaming": 5020,
      "Ġmillili": 5021,
      "hing": 5022,
      "Ġsouthwestern": 5023,
      "Ġthinner": 5024,
      "Ġstovetop": 5025,
      "Ġmoon": 5026,
      "Ġcornflour": 5027,
      "bal": 5028,
      "iar": 5029,
      "west": 5030,
      "Ġdevelo": 5031,
      "Ġrather": 5032,
      "chicken": 5033,
      "ida": 5034,
      "Ġkorean": 5035,
      "atel": 5036,
      "net": 5037,
      "Ġomelette": 5038,
      "ware": 5039,
      "Ġarea": 5040,
      "ging": 5041,
      "Ġselect": 5042,
      "Ġmallet": 5043,
      "Ġgourmet": 5044,
      "car": 5045,
      "Ġcase": 5046,
      "Ġhalved": 5047,
      "Ġoverbake": 5048,
      "Ġanything": 5049,
      "shap": 5050,
      "Ġparfait": 5051,
      "Ġswordfish": 5052,
      "Ġsauces": 5053,
      "cover": 5054,
      "Ġstandard": 5055,
      "chocolate": 5056,
      "Ġscorch": 5057,
      "pie": 5058,
      "Ġcrumbles": 5059,
      "Ġmonkey": 5060,
      "gn": 5061,
      "Ġtouching": 5062,
      "ribs": 5063,
      "Ġescar": 5064,
      "Ġseaweed": 5065,
      "hol": 5066,
      "Ġable": 5067,
      "ution": 5068,
      "Ġatta": 5069,
      "third": 5070,
      "Ġopposite": 5071,
      "Ġhellmann": 5072,
      "Ġjohn": 5073,
      "Ġpres": 5074,
      "Ġsomewhat": 5075,
      "Ġlivers": 5076,
      "Ġchange": 5077,
      "Ġbuy": 5078,
      "Ġelse": 5079,
      "Ġsaltine": 5080,
      "Ġscrub": 5081,
      "Ġsubstituted": 5082,
      "Ġsupper": 5083,
      "Ġalco": 5084,
      "Ġ;": 5085,
      "Ġrain": 5086,
      "rew": 5087,
      "Ġgm": 5088,
      "atta": 5089,
      "Ġcarving": 5090,
      "kets": 5091,
      "Ġliquor": 5092,
      "Ġprobably": 5093,
      "Ġcaviar": 5094,
      "sing": 5095,
      "Ġcrusted": 5096,
      "Ġmostly": 5097,
      "Ġhall": 5098,
      "Ġramekin": 5099,
      "Ġsometimes": 5100,
      "Ġmilliliter": 5101,
      "Ġspreadable": 5102,
      "Ġescape": 5103,
      "Ġgooey": 5104,
      "onion": 5105,
      "Ġgrater": 5106,
      "via": 5107,
      "right": 5108,
      "Ġku": 5109,
      "amo": 5110,
      "Ġseper": 5111,
      "Ġskimm": 5112,
      "over": 5113,
      "orio": 5114,
      "Ġdistributed": 5115,
      "ndy": 5116,
      "Ġuncle": 5117,
      "Ġgreasing": 5118,
      "lee": 5119,
      "Ġcontinuing": 5120,
      "Ġrapidly": 5121,
      "Ġsweat": 5122,
      "make": 5123,
      "shaped": 5124,
      "verage": 5125,
      "col": 5126,
      "Ġdrumsticks": 5127,
      "Ġdiscarded": 5128,
      "ming": 5129,
      "Ġfer": 5130,
      "Ġmother": 5131,
      "Ġhick": 5132,
      "Ġtails": 5133,
      "sweet": 5134,
      "boiled": 5135,
      "virgin": 5136,
      "Ġcow": 5137,
      "Ġpackages": 5138,
      "ja": 5139,
      "Ġvariety": 5140,
      "ha": 5141,
      "Ġvariations": 5142,
      "adas": 5143,
      "Ġattached": 5144,
      "time": 5145,
      "Ġnachos": 5146,
      "Ġpimentos": 5147,
      "Ġcrisps": 5148,
      "tend": 5149,
      "Ġhickory": 5150,
      "Ġhungarian": 5151,
      "Â°)": 5152,
      "Ġcanadian": 5153,
      "Ġcrystall": 5154,
      "Ġflute": 5155,
      "Ġripe": 5156,
      "14": 5157,
      "Ġeyes": 5158,
      "my": 5159,
      "iki": 5160,
      "Ġsnicker": 5161,
      "Ġjoes": 5162,
      "Ġjas": 5163,
      "Ġquail": 5164,
      "rice": 5165,
      "Ã¨": 5166,
      "Ġbleu": 5167,
      "Ġfrosted": 5168,
      "quettes": 5169,
      "Ġww": 5170,
      "approximately": 5171,
      "Ġdepth": 5172,
      "icum": 5173,
      "Ġarborio": 5174,
      "Ġfore": 5175,
      "sat": 5176,
      "Ġextracts": 5177,
      "Ġyork": 5178,
      "Ġdesire": 5179,
      "loins": 5180,
      "acho": 5181,
      "Ġsomething": 5182,
      "aur": 5183,
      "gen": 5184,
      "Ġcombining": 5185,
      "issa": 5186,
      "Ġspareribs": 5187,
      "Ġcomp": 5188,
      "Ġsor": 5189,
      "Ġmicrowaveable": 5190,
      "Ġfarro": 5191,
      "round": 5192,
      "del": 5193,
      "Ġsound": 5194,
      "Ġsuperfine": 5195,
      "Ġfruity": 5196,
      "Ġwat": 5197,
      "Ġshep": 5198,
      "fruit": 5199,
      "Ġface": 5200,
      "Ġfrypan": 5201,
      "crisp": 5202,
      "Ġtenderloins": 5203,
      "Ġcapsicum": 5204,
      "mu": 5205,
      "Ġtoasts": 5206,
      "Ġjasmine": 5207,
      "babs": 5208,
      "Ġprec": 5209,
      "Ġrut": 5210,
      "Ġfilm": 5211,
      "Ġportabella": 5212,
      "Ġrins": 5213,
      "iesta": 5214,
      "eyed": 5215,
      "Ġjambal": 5216,
      "Ġshot": 5217,
      "Ġminut": 5218,
      "Ġcollard": 5219,
      "pacho": 5220,
      "Ġkebabs": 5221,
      "Ġrat": 5222,
      "Ġheath": 5223,
      "until": 5224,
      "Ġcels": 5225,
      "Ġgaz": 5226,
      "Ġsaut": 5227,
      "Ġcremini": 5228,
      "Ġrotis": 5229,
      "Ġmock": 5230,
      "Ġcycle": 5231,
      "Ġcelsius": 5232,
      "Ġdecoration": 5233,
      "Ġpatted": 5234,
      "Ġjambalaya": 5235,
      "Ġgrass": 5236,
      "Ġsamb": 5237,
      "Ġscraps": 5238,
      "Ġfiesta": 5239,
      "Ġmess": 5240,
      "Ġsteps": 5241,
      "Ġrel": 5242,
      "Ġrend": 5243,
      "Ġbutt": 5244,
      "Ġchecking": 5245,
      "uscan": 5246,
      "Ġstorage": 5247,
      "uan": 5248,
      "Ġdrying": 5249,
      "microw": 5250,
      "boil": 5251,
      "agle": 5252,
      "Ġlunch": 5253,
      "Ġmedall": 5254,
      "Ġescarole": 5255,
      "Ġmasa": 5256,
      "abag": 5257,
      "11": 5258,
      "ify": 5259,
      "Ġgazpacho": 5260,
      "beaten": 5261,
      "gian": 5262,
      "Ġsunda": 5263,
      "Ġsecre": 5264,
      "Ġwho": 5265,
      "Ġbuckwheat": 5266,
      "Ġgranules": 5267,
      "Ġworld": 5268,
      "ccia": 5269,
      "Ġmatchstick": 5270,
      "Ġdecorating": 5271,
      ".\"": 5272,
      "ntine": 5273,
      "Ġpolish": 5274,
      "Ġunsifted": 5275,
      "Ġmixtures": 5276,
      "Ġ145": 5277,
      "ship": 5278,
      "Ġmedley": 5279,
      "Ġrabe": 5280,
      "gi": 5281,
      "lemon": 5282,
      "mixture": 5283,
      "Ġtossed": 5284,
      "Ġult": 5285,
      "Ġfriend": 5286,
      "Ġgoulash": 5287,
      "py": 5288,
      "Ġfacing": 5289,
      "Ġpanini": 5290,
      "vest": 5291,
      "Ġtuscan": 5292,
      "Ġsizzle": 5293,
      "they": 5294,
      "Ġnet": 5295,
      "orn": 5296,
      "Ġfamous": 5297,
      "Ġshepher": 5298,
      "Ġmama": 5299,
      "chamel": 5300,
      "Ġsciss": 5301,
      "Ġweights": 5302,
      "self": 5303,
      "Ġeff": 5304,
      "Ġamaz": 5305,
      "microwave": 5306,
      "Ġmouth": 5307,
      "Ġdal": 5308,
      "Ġblond": 5309,
      "Ġ)": 5310,
      "Ġbook": 5311,
      "Ġfoca": 5312,
      "Ġacid": 5313,
      "Ġdec": 5314,
      "tomato": 5315,
      "pec": 5316,
      "salt": 5317,
      "serie": 5318,
      "Ġhamburg": 5319,
      "Ġ!": 5320,
      "Ġswitch": 5321,
      "Ġheavenly": 5322,
      "reserve": 5323,
      "Ġstru": 5324,
      "Ġroaster": 5325,
      "Ġflowers": 5326,
      "Ġgrey": 5327,
      "Ġsmoker": 5328,
      "Ġaged": 5329,
      "orr": 5330,
      "Ġchillies": 5331,
      "crusted": 5332,
      "Ġsilicone": 5333,
      "Ġfocaccia": 5334,
      "cellent": 5335,
      "iri": 5336,
      "ppers": 5337,
      "Ġwid": 5338,
      "boned": 5339,
      "Ġcutters": 5340,
      "ĠâĢ": 5341,
      "Ġmicro": 5342,
      "Ġnavy": 5343,
      "Ġapply": 5344,
      "Ġcreamer": 5345,
      "Ġrustic": 5346,
      "Ġenclose": 5347,
      "Ġciab": 5348,
      "Ġdevelop": 5349,
      "Ġenvelop": 5350,
      "Ġstopping": 5351,
      "Ġbrio": 5352,
      "Ġswirling": 5353,
      "Ġmil": 5354,
      "Ġeagle": 5355,
      "Ġtost": 5356,
      "Ġflowere": 5357,
      "Ġtreat": 5358,
      "Ġmoving": 5359,
      "Ġultimate": 5360,
      "Ġsoymilk": 5361,
      "Ġaccompaniment": 5362,
      "Ġsouthwest": 5363,
      "Ġciabatta": 5364,
      "Ġna": 5365,
      "Ġnar": 5366,
      "Ġinform": 5367,
      "Ġalcohol": 5368,
      "cla": 5369,
      "70": 5370,
      "Ġclu": 5371,
      "Ġfettuc": 5372,
      "Ġtests": 5373,
      "pee": 5374,
      "thirds": 5375,
      "Ġaw": 5376,
      "Ġscraped": 5377,
      "Ġrendered": 5378,
      "Ġsource": 5379,
      "Ġrotisserie": 5380,
      "Ġpreserved": 5381,
      "zu": 5382,
      "Ġbisque": 5383,
      "Ġknorr": 5384,
      "Ġcornish": 5385,
      "Ġhang": 5386,
      "Ġinformation": 5387,
      "Ġtoaster": 5388,
      "Ġcass": 5389,
      "Ġharvest": 5390,
      "Ġpopsic": 5391,
      "card": 5392,
      "irty": 5393,
      "Ġchimich": 5394,
      "akuri": 5395,
      "Ġdefrost": 5396,
      "Ġsang": 5397,
      "sl": 5398,
      "Ġsam": 5399,
      "here": 5400,
      "Ġemer": 5401,
      "Ġtrimmed": 5402,
      "Ġexp": 5403,
      "Ġshortcake": 5404,
      "akuriko": 5405,
      "Ġpith": 5406,
      "Ġmacaroons": 5407,
      "Ġprune": 5408,
      "Ġdeboned": 5409,
      "Ġcornflakes": 5410,
      "Ġtangerine": 5411,
      "ulated": 5412,
      "mex": 5413,
      "lade": 5414,
      "ddo": 5415,
      "Ġbased": 5416,
      "Ġkatakuriko": 5417,
      "Ġceramic": 5418,
      "Ġproportion": 5419,
      "Ġfreezing": 5420,
      "zer": 5421,
      "Ġbarrel": 5422,
      "Ġcalled": 5423,
      "Ġtots": 5424,
      "aced": 5425,
      "bra": 5426,
      "Ġclar": 5427,
      "Ġinsides": 5428,
      "Ġsuit": 5429,
      "Ġ42": 5430,
      "Ġbreaded": 5431,
      "Ġlouis": 5432,
      "bin": 5433,
      "Ġhig": 5434,
      "Ġbechamel": 5435,
      "ipment": 5436,
      "Ġdecorative": 5437,
      "Ġbrioche": 5438,
      "Ġ41": 5439,
      "Ġharissa": 5440,
      "Ġcatch": 5441,
      "Ġrele": 5442,
      "well": 5443,
      "Ġequipment": 5444,
      "Ġpli": 5445,
      "Ġmalt": 5446,
      "Ġdiamo": 5447,
      "Ġrestaur": 5448,
      "Ġsaturated": 5449,
      "Ġsecret": 5450,
      "ities": 5451,
      "Ġsets": 5452,
      "Ġmarz": 5453,
      "Ġdiabetic": 5454,
      "Ġrainbow": 5455,
      "Ġrefresh": 5456,
      "Â®": 5457,
      "Ġcall": 5458,
      "iding": 5459,
      "Ġcannot": 5460,
      "Ġitself": 5461,
      "Ġite": 5462,
      "Ġpuffy": 5463,
      "elle": 5464,
      "Ġisn": 5465,
      "een": 5466,
      "Ġ~": 5467,
      "Ġkabocha": 5468,
      "Ġamber": 5469,
      "Ġtwine": 5470,
      "Ġcrystallized": 5471,
      "Ġcroquettes": 5472,
      "Ġminest": 5473,
      "pends": 5474,
      "Ġeaster": 5475,
      "Ġcamp": 5476,
      "Ġlimeade": 5477,
      "Ġmul": 5478,
      "Ġandouille": 5479,
      "Ġaccum": 5480,
      "Ġfava": 5481,
      "ginger": 5482,
      "Ġjun": 5483,
      "rone": 5484,
      "elt": 5485,
      "Ġob": 5486,
      "Ġassem": 5487,
      "Ġoils": 5488,
      "illi": 5489,
      "Ġomitting": 5490,
      "Ġdistil": 5491,
      "etti": 5492,
      "Ġresemble": 5493,
      "Ġexcellent": 5494,
      "Ġbalance": 5495,
      "Ġcarnation": 5496,
      "Ġnarrow": 5497,
      "dish": 5498,
      "Ġraising": 5499,
      "Ġplump": 5500,
      "*.": 5501,
      "Ġmrs": 5502,
      "Ġshel": 5503,
      "Ġassembly": 5504,
      "isse": 5505,
      "Ġann": 5506,
      "Ġchefs": 5507,
      "possi": 5508,
      "Ġsan": 5509,
      "pecan": 5510,
      "):": 5511,
      "Ġslight": 5512,
      "bi": 5513,
      "Ġteaspoonful": 5514,
      "Ġflou": 5515,
      "Ġbarbeque": 5516,
      "Ġeasiest": 5517,
      "Ġrubbed": 5518,
      "Ġdistilled": 5519,
      "Ġexact": 5520,
      "Ġeaten": 5521,
      "Ġdecre": 5522,
      "Ġalum": 5523,
      "Ġfail": 5524,
      "Ġlengths": 5525,
      "Ġcompan": 5526,
      "ava": 5527,
      "Ġretain": 5528,
      "Ġyear": 5529,
      "Ġnapa": 5530,
      "adine": 5531,
      "Ġscissors": 5532,
      "Ġbeaut": 5533,
      "Ġwheel": 5534,
      "....": 5535,
      "Ġsar": 5536,
      "Ġsard": 5537,
      "Ġleche": 5538,
      "tip": 5539,
      "Ġbreads": 5540,
      "four": 5541,
      "itation": 5542,
      "Ġscrew": 5543,
      "aken": 5544,
      "Ġkick": 5545,
      "Ġphilly": 5546,
      "Ġrows": 5547,
      "comb": 5548,
      "Ġsizzling": 5549,
      "Ġaubergine": 5550,
      "Ġminimum": 5551,
      "Ġvitam": 5552,
      "Ġsalads": 5553,
      "Ġimpossi": 5554,
      "Ġdusted": 5555,
      "Ġoptions": 5556,
      "Ġfluted": 5557,
      "irect": 5558,
      "sour": 5559,
      "Ġment": 5560,
      "Ġangle": 5561,
      "Ġpinwheels": 5562,
      "Ġfilets": 5563,
      "Ġamazing": 5564,
      "Ġflounder": 5565,
      "Ġbeautif": 5566,
      "Ġrestaurant": 5567,
      "ral": 5568,
      "Ġchipped": 5569,
      "Ġ140": 5570,
      "Ġplanter": 5571,
      "des": 5572,
      "Ġpliable": 5573,
      "Ġcurl": 5574,
      "Ġcolada": 5575,
      "Ġsilken": 5576,
      "Ġsubs": 5577,
      "Ġheirl": 5578,
      "urst": 5579,
      "Ġfancy": 5580,
      "Ġprof": 5581,
      "potato": 5582,
      "Ġkraut": 5583,
      "Ġminestrone": 5584,
      "eer": 5585,
      "165": 5586,
      "Ġpad": 5587,
      "Ġquant": 5588,
      "Ġkimchi": 5589,
      "vable": 5590,
      "Ġdrizzled": 5591,
      "keep": 5592,
      "Ġxanth": 5593,
      "Ġrip": 5594,
      "Ġheirloom": 5595,
      "peeled": 5596,
      "Ġfalling": 5597,
      "Ġindirect": 5598,
      "Ġspritz": 5599,
      "boy": 5600,
      "Ġimitation": 5601,
      "Ġpints": 5602,
      "Ġcured": 5603,
      "Ġsaucy": 5604,
      "Ġburgu": 5605,
      "ked": 5606,
      "house": 5607,
      "Ġfus": 5608,
      "veget": 5609,
      "izer": 5610,
      "Ġcalam": 5611,
      "Ġbeverage": 5612,
      "Ġsilver": 5613,
      "Ġplay": 5614,
      "ju": 5615,
      "pecially": 5616,
      "fold": 5617,
      "Ġlabel": 5618,
      "Ġboy": 5619,
      "Ġmandol": 5620,
      "Ġsealing": 5621,
      "Ġcompany": 5622,
      "Ġprovence": 5623,
      "gets": 5624,
      "Ġdebone": 5625,
      "ult": 5626,
      "Ġmincemeat": 5627,
      "Ġprovided": 5628,
      "landa": 5629,
      "Ġ190": 5630,
      "Ġoc": 5631,
      "Ġdef": 5632,
      "Ġbagels": 5633,
      "Ġburgundy": 5634,
      "Ġpacked": 5635,
      "Ġlaw": 5636,
      "Ġmeaty": 5637,
      "ppies": 5638,
      "Ġchickens": 5639,
      "Ġupright": 5640,
      "iod": 5641,
      "Ġoverlap": 5642,
      "Ġchild": 5643,
      "asy": 5644,
      "Ġplun": 5645,
      "almo": 5646,
      "Ġproportionately": 5647,
      "Ġslip": 5648,
      "Ġmangoes": 5649,
      "dor": 5650,
      "Ġox": 5651,
      "Ġpico": 5652,
      "Ġtenders": 5653,
      "fitting": 5654,
      "Ġmussel": 5655,
      "landaise": 5656,
      "Ġshepherd": 5657,
      "Ġsoba": 5658,
      "Ġrope": 5659,
      "vil": 5660,
      "Ġsangria": 5661,
      "Ġfajitas": 5662,
      "Ġ75": 5663,
      "Ġclarified": 5664,
      "Ġdoritos": 5665,
      "ils": 5666,
      "Ġimpossible": 5667,
      "Ġcarib": 5668,
      "Ġnonreactive": 5669,
      "from": 5670,
      "ded": 5671,
      "cooker": 5672,
      "estive": 5673,
      "Ġstiffly": 5674,
      "Ġhollandaise": 5675,
      "Ġtilt": 5676,
      "Ġcongealed": 5677,
      "Ġseperate": 5678,
      "Ġfolded": 5679,
      "eh": 5680,
      "Ġjoe": 5681,
      "ales": 5682,
      "Ġdoz": 5683,
      "Ġgallo": 5684,
      "ilian": 5685,
      "Ġmahi": 5686,
      "Ġmixes": 5687,
      "Ġgren": 5688,
      "Ġfresco": 5689,
      "hered": 5690,
      "rock": 5691,
      "mered": 5692,
      "etnam": 5693,
      "Ġturtle": 5694,
      "ield": 5695,
      "Ġindividually": 5696,
      "Ġfinishing": 5697,
      "Ġdollar": 5698,
      "Ġmembran": 5699,
      "Ġlock": 5700,
      "Ġnuggets": 5701,
      "Ġgot": 5702,
      "ior": 5703,
      "Ġchal": 5704,
      "Ġgame": 5705,
      "Ġpared": 5706,
      "greek": 5707,
      "Ġshelf": 5708,
      "Ġdecrease": 5709,
      "Ġinfused": 5710,
      "quar": 5711,
      "Ġpair": 5712,
      "Ġspoons": 5713,
      "Ġperiod": 5714,
      "Ġhush": 5715,
      "Ġcrabs": 5716,
      "Ġwedding": 5717,
      "Ġdepends": 5718,
      "cted": 5719,
      "Ġrises": 5720,
      "gra": 5721,
      "Ġskirt": 5722,
      "Ġlazy": 5723,
      "Ġxanthan": 5724,
      "Ġlatt": 5725,
      "160": 5726,
      "through": 5727,
      "Ġdonuts": 5728,
      "ward": 5729,
      "Ġmarks": 5730,
      "Ġplantains": 5731,
      "held": 5732,
      "etnamese": 5733,
      "Ġchervil": 5734,
      "Ġrid": 5735,
      "Ġarrow": 5736,
      "Ġvisible": 5737,
      "Ġgiblets": 5738,
      "Ġtu": 5739,
      "pat": 5740,
      "Ġempan": 5741,
      "Ġlimp": 5742,
      "____": 5743,
      "Ġtarget": 5744,
      "Ġgrenadine": 5745,
      "Ġoutdo": 5746,
      "clair": 5747,
      "nese": 5748,
      "Ġwhirl": 5749,
      "Ġshuck": 5750,
      "Ġpitas": 5751,
      "Ġindentation": 5752,
      "Ġfron": 5753,
      "Ġbuild": 5754,
      "Ġsunday": 5755,
      "edible": 5756,
      "Ġmotor": 5757,
      "Ġmeyer": 5758,
      "Ġfajita": 5759,
      ",.": 5760,
      "Ġmeringues": 5761,
      "Ġdanish": 5762,
      "Ġnaan": 5763,
      "Ġ475": 5764,
      "Â°).": 5765,
      "mear": 5766,
      "Ġdul": 5767,
      "Ġthings": 5768,
      "Ġadhere": 5769,
      "Ġgoose": 5770,
      "Ġburst": 5771,
      "ome": 5772,
      "Ġbli": 5773,
      "beat": 5774,
      "Ġpackag": 5775,
      "Ġlemony": 5776,
      "Ġtowards": 5777,
      "Ġcaribbean": 5778,
      "Ġpoup": 5779,
      "ict": 5780,
      "Ġfarf": 5781,
      "Ġlattice": 5782,
      "fort": 5783,
      "pine": 5784,
      "Ġstevia": 5785,
      "Ġhusks": 5786,
      "Ġpoupon": 5787,
      "wurst": 5788,
      "Ġyoung": 5789,
      "Ġphoto": 5790,
      "Ġcalamari": 5791,
      "Ġsambal": 5792,
      "Ġchai": 5793,
      "Ġpaint": 5794,
      "Ġpaella": 5795,
      "Ġheads": 5796,
      "Ġdraw": 5797,
      "ci": 5798,
      "wood": 5799,
      "Ġinner": 5800,
      "Ġmedallions": 5801,
      "Ġshoots": 5802,
      "more": 5803,
      "Ġcarve": 5804,
      "icky": 5805,
      "Ġemulsified": 5806,
      "Ġyourself": 5807,
      "Ġokay": 5808,
      "Ġextend": 5809,
      "ucky": 5810,
      "Ġears": 5811,
      "Ġnumber": 5812,
      "Ġkir": 5813,
      "Ġpounded": 5814,
      "Ġsurround": 5815,
      "Ġblanc": 5816,
      "liced": 5817,
      "Ġunbeaten": 5818,
      "Ġtransferring": 5819,
      "Ġworth": 5820,
      "Ġcyl": 5821,
      "Ġeclair": 5822,
      "ern": 5823,
      "Ġachieve": 5824,
      "Ġgrainy": 5825,
      "Ġspa": 5826,
      "Ġric": 5827,
      "Ġdoing": 5828,
      "Ġslurry": 5829,
      "apenade": 5830,
      "Ġtira": 5831,
      "Ġscoops": 5832,
      "Ġpkt": 5833,
      "Ġladyfingers": 5834,
      "plate": 5835,
      "degre": 5836,
      "Ġsoftens": 5837,
      "raph": 5838,
      "seasoned": 5839,
      "umn": 5840,
      "napp": 5841,
      "binado": 5842,
      "Ġgives": 5843,
      "Ġarrowroot": 5844,
      "Ġroy": 5845,
      "Ġperfectly": 5846,
      "Ġmud": 5847,
      "Ġ80": 5848,
      "Ġribbons": 5849,
      "Ġaccumulated": 5850,
      "Ġfront": 5851,
      "inz": 5852,
      "Ġstrata": 5853,
      "Ġturbinado": 5854,
      "Ġtamale": 5855,
      "Ġspot": 5856,
      "Ġsimmered": 5857,
      "Ġtapenade": 5858,
      "test": 5859,
      "Ġsweetness": 5860,
      "cci": 5861,
      "Ġoreos": 5862,
      "Ġremovable": 5863,
      "blend": 5864,
      "Ġphotog": 5865,
      "Ġ43": 5866,
      "Ġmarket": 5867,
      "Ġlinks": 5868,
      "Ġfollows": 5869,
      "Ġshavings": 5870,
      "Ġmid": 5871,
      "Ġlawry": 5872,
      "Ġcarne": 5873,
      "Ġbundle": 5874,
      "Ġdan": 5875,
      "Ġknives": 5876,
      "Ġrinsed": 5877,
      "Ġscant": 5878,
      "Ġmax": 5879,
      "Ġtiramis": 5880,
      "itan": 5881,
      "Ġtempeh": 5882,
      "Ġdoughnut": 5883,
      "avable": 5884,
      "Ġsole": 5885,
      "Ġespecially": 5886,
      "Ġschnapp": 5887,
      "giving": 5888,
      "Ġkom": 5889,
      "Ġfoods": 5890,
      "Ġlinguini": 5891,
      "Ġcrystals": 5892,
      "Ġreese": 5893,
      "Ġstout": 5894,
      "Ġphotograph": 5895,
      "Ġspacing": 5896,
      "Ġreduction": 5897,
      "Ġvietnamese": 5898,
      "Ġgarni": 5899,
      "Ġradishe": 5900,
      "Ġnectarin": 5901,
      "Ġshoe": 5902,
      "Ġrecommended": 5903,
      "Ġmotion": 5904,
      "Ġreub": 5905,
      "Ġoffset": 5906,
      "Ġheav": 5907,
      "Ġinclude": 5908,
      "Ġstuck": 5909,
      "ona": 5910,
      "Ġpina": 5911,
      "depending": 5912,
      "Ġplunge": 5913,
      "Ġclosely": 5914,
      "Ġpuppies": 5915,
      "Ġspam": 5916,
      "--------": 5917,
      "Ġmicrowavable": 5918,
      "Ġtro": 5919,
      "Ġoption": 5920,
      "Ġcone": 5921,
      "Ġvisit": 5922,
      "Ġcleaned": 5923,
      "ras": 5924,
      "lly": 5925,
      "Ġdorito": 5926,
      "Ġoutdoor": 5927,
      "Ġshank": 5928,
      "Ġvertically": 5929,
      "Ġziplock": 5930,
      "Ġtiramisu": 5931,
      "Ġpulls": 5932,
      "Ġlouisiana": 5933,
      "Ġfitting": 5934,
      "Ġgrocer": 5935,
      "Â°;": 5936,
      "Ġthanks": 5937,
      "chopped": 5938,
      "Ġcorrect": 5939,
      "Ġdeg": 5940,
      "esome": 5941,
      "Ġsmear": 5942,
      "Ġbai": 5943,
      "Ġcatal": 5944,
      "ppi": 5945,
      "dis": 5946,
      "stone": 5947,
      "Ġcrema": 5948,
      "Ġedible": 5949,
      "Ġmembrane": 5950,
      "Ġclusters": 5951,
      "Ġheinz": 5952,
      "Ġwidth": 5953,
      "Ġcurls": 5954,
      "nic": 5955,
      "Ġpepp": 5956,
      "reau": 5957,
      "Ġreduces": 5958,
      "wrapped": 5959,
      "Ġreheated": 5960,
      "Ġprecook": 5961,
      "iously": 5962,
      "Ġdiamond": 5963,
      "dorf": 5964,
      "Ġdulce": 5965,
      "Ġhapp": 5966,
      "Ġautumn": 5967,
      "Ġshoot": 5968,
      "Ġ65": 5969,
      "Ġpoor": 5970,
      "Ġpeels": 5971,
      "Ġmaybe": 5972,
      "zech": 5973,
      "Ġproperly": 5974,
      "Ġsaving": 5975,
      "Ġflaxseed": 5976,
      "Ġjug": 5977,
      "Ġgroup": 5978,
      "fourth": 5979,
      "Ġdraining": 5980,
      "Ġload": 5981,
      "Ġpartic": 5982,
      "Ġkum": 5983,
      "uds": 5984,
      "Ġcame": 5985,
      "Ġbottomed": 5986,
      "Ġext": 5987,
      "ousand": 5988,
      "Ġmillion": 5989,
      "intreau": 5990,
      "Ġtend": 5991,
      "Ġdig": 5992,
      "Ġsoggy": 5993,
      "Ġvar": 5994,
      "Ġitems": 5995,
      "Ġanyone": 5996,
      "Ġskip": 5997,
      "appe": 5998,
      "Ġmembranes": 5999,
      "Ġstores": 6000,
      "Ġka": 6001,
      "Ġawesome": 6002,
      "Ġfud": 6003,
      "Ġcointreau": 6004,
      "Ġmatcha": 6005,
      "olf": 6006,
      "ising": 6007,
      "Ġguests": 6008,
      "Ġcylinder": 6009,
      "Ġrims": 6010,
      "Ġnan": 6011,
      "Ġexpo": 6012,
      "Ġsecurely": 6013,
      "Ġcoke": 6014,
      "Ġplaces": 6015,
      "Ġthousand": 6016,
      "Ġpushing": 6017,
      "Ġbutcher": 6018,
      "Ġwashed": 6019,
      "Ġwatcher": 6020,
      "Ġid": 6021,
      "using": 6022,
      "Ġcircular": 6023,
      "recipe": 6024,
      "Ġflavorings": 6025,
      "kish": 6026,
      "Ġcoca": 6027,
      "Ġaccess": 6028,
      "Ġamerica": 6029,
      "Ġyoure": 6030,
      "dew": 6031,
      "Ġple": 6032,
      "Ġstale": 6033,
      "serving": 6034,
      "save": 6035,
      "Ġbull": 6036,
      "Ġlighter": 6037,
      "Ġ225": 6038,
      "ieved": 6039,
      "Ġcovers": 6040,
      "Ġappears": 6041,
      "Ġsoya": 6042,
      "Ġwaldorf": 6043,
      "Ġpastries": 6044,
      "Ġbailey": 6045,
      "Ġanal": 6046,
      "Ġmeld": 6047,
      "Ġ44": 6048,
      "Ġcrescents": 6049,
      "Ġslab": 6050,
      "ddock": 6051,
      "Ġmad": 6052,
      "Ġhaddock": 6053,
      "Ġdropped": 6054,
      "Ġseem": 6055,
      "white": 6056,
      "Ġgale": 6057,
      "urbed": 6058,
      "Ġcuban": 6059,
      "Ġbraid": 6060,
      "Ġpouch": 6061,
      "lied": 6062,
      "Ġly": 6063,
      "ampi": 6064,
      "Ġkisses": 6065,
      "Ġtotally": 6066,
      "lot": 6067,
      "ists": 6068,
      "Ġemeril": 6069,
      "Ġ@": 6070,
      "Ġcam": 6071,
      "Ġsaucepot": 6072,
      "oodles": 6073,
      "Ġsnip": 6074,
      "Ġaroma": 6075,
      "cond": 6076,
      "Ġbrat": 6077,
      "gate": 6078,
      "Ġpercent": 6079,
      "iders": 6080,
      "Ġsqueezing": 6081,
      "Ġsnacks": 6082,
      "Ġhoneydew": 6083,
      "Ġros": 6084,
      "kee": 6085,
      "Ġneat": 6086,
      "Ġfunnel": 6087,
      "isturbed": 6088,
      "Ġsettle": 6089,
      "Ġsegment": 6090,
      "Ġbigg": 6091,
      "Ġdab": 6092,
      "vera": 6093,
      "Ġrocky": 6094,
      "Ġchopping": 6095,
      "Ġundisturbed": 6096,
      "Ġtz": 6097,
      "ggie": 6098,
      "lar": 6099,
      "Ġsi": 6100,
      "Ġchurn": 6101,
      "Ġcowboy": 6102,
      "Ġprima": 6103,
      "Ġgras": 6104,
      "Ġdisappe": 6105,
      "uv": 6106,
      "ignon": 6107,
      "Ġfusilli": 6108,
      "Ġtet": 6109,
      "Ġconf": 6110,
      "wide": 6111,
      "green": 6112,
      "Ġmanner": 6113,
      "ickel": 6114,
      "Ġlines": 6115,
      "Ġpep": 6116,
      "Ġrutabag": 6117,
      "Ġscampi": 6118,
      "Ġflavorful": 6119,
      "Ġwontons": 6120,
      "Ġdidn": 6121,
      "Ġsort": 6122,
      "Ġni": 6123,
      "Ġfilo": 6124,
      "Ġsubmerge": 6125,
      "ros": 6126,
      "urri": 6127,
      "Ġcomfort": 6128,
      "55": 6129,
      "Ġvitamin": 6130,
      "Ġbolognese": 6131,
      "Ġnetwork": 6132,
      "Ġmillet": 6133,
      "Ġunderside": 6134,
      "Ġreuben": 6135,
      "lah": 6136,
      "Ġgalette": 6137,
      "Ġfix": 6138,
      "Ġbelgian": 6139,
      "Ġnave": 6140,
      "Ġmult": 6141,
      "Ġflattened": 6142,
      "Ġmarinating": 6143,
      "Ġclou": 6144,
      "ysis": 6145,
      "Ġoctop": 6146,
      "Ġquartered": 6147,
      "Ġgrocery": 6148,
      "sk": 6149,
      "gerate": 6150,
      "andel": 6151,
      "Ġinc": 6152,
      "fill": 6153,
      "pen": 6154,
      "recipes": 6155,
      "off": 6156,
      "arina": 6157,
      "Ġroad": 6158,
      "asing": 6159,
      "Ġfarfalle": 6160,
      "cat": 6161,
      "Ġanalysis": 6162,
      "Ġpimientos": 6163,
      "Ġprimavera": 6164,
      "Ġvent": 6165,
      "Ġsnickerd": 6166,
      "ugu": 6167,
      "Ġseams": 6168,
      "Ġsundae": 6169,
      "Ġdivan": 6170,
      "Ġnavel": 6171,
      "Ġeffect": 6172,
      "anta": 6173,
      "Ġflorentine": 6174,
      "Ġstrudel": 6175,
      "Ġsugared": 6176,
      "Ġpurch": 6177,
      "Ġdividing": 6178,
      "Ġoctopus": 6179,
      "Ã¨me": 6180,
      "Ġbundles": 6181,
      "Ġburnt": 6182,
      "Ġgrab": 6183,
      "Ġpopo": 6184,
      "Ġfestive": 6185,
      "Ġtetra": 6186,
      "Ġrag": 6187,
      "Ġbob": 6188,
      "overs": 6189,
      "atz": 6190,
      "shake": 6191,
      "Ġbud": 6192,
      "Ġfruitcake": 6193,
      "ĠcrÃ¨me": 6194,
      "Ġturkish": 6195,
      "Ġrocks": 6196,
      "Ġheavily": 6197,
      "Ġopened": 6198,
      "Ġfranks": 6199,
      "Ġcheesecakes": 6200,
      "Ġfrito": 6201,
      "Ġliner": 6202,
      "Ġblossoms": 6203,
      "Ġzi": 6204,
      "sia": 6205,
      "ett": 6206,
      "almond": 6207,
      "zzini": 6208,
      "Ġtamales": 6209,
      "mush": 6210,
      "fuse": 6211,
      "Ġcalz": 6212,
      "Ġchimichurri": 6213,
      "vection": 6214,
      "Ġpicnic": 6215,
      "Ġ120": 6216,
      "topped": 6217,
      "Ġdrumstick": 6218,
      "hand": 6219,
      "Ġscorching": 6220,
      "Ġneuf": 6221,
      "Ġcopy": 6222,
      "Ġresult": 6223,
      "Ġfant": 6224,
      "Ġalla": 6225,
      "mustard": 6226,
      "Ġje": 6227,
      "Ġmadeira": 6228,
      "Ġindic": 6229,
      "othered": 6230,
      "Ġtetrazzini": 6231,
      "chatel": 6232,
      "Ġcarbohydrates": 6233,
      "Ġstewing": 6234,
      "Ġpalms": 6235,
      "Ġorle": 6236,
      "uguese": 6237,
      "aks": 6238,
      "atore": 6239,
      "Ġjama": 6240,
      "Ġcarol": 6241,
      "Ġthanksgiving": 6242,
      "ga": 6243,
      "Ġgal": 6244,
      "Ġtherefore": 6245,
      "oween": 6246,
      "Ġcatalina": 6247,
      "Ġhamburgers": 6248,
      "Ġmuddle": 6249,
      "Ġfal": 6250,
      "aper": 6251,
      "Ġskimming": 6252,
      "ntic": 6253,
      "iper": 6254,
      "floured": 6255,
      "\",": 6256,
      "balls": 6257,
      "Ġdevein": 6258,
      "Ġcapp": 6259,
      "Ġdisks": 6260,
      "gl": 6261,
      "Ġmr": 6262,
      "Ġmount": 6263,
      "Ġblot": 6264,
      "Ġlastly": 6265,
      "Ġgiant": 6266,
      "brosia": 6267,
      "Ġactually": 6268,
      "Ġcornflake": 6269,
      "Ġsay": 6270,
      "Ġsauteing": 6271,
      "Ġneufchatel": 6272,
      "Ġscr": 6273,
      "Ġtimer": 6274,
      "Ġmulti": 6275,
      "Ġsult": 6276,
      "24": 6277,
      "Ġpumpern": 6278,
      "Ġpierog": 6279,
      "Ġsundried": 6280,
      "Ġpom": 6281,
      "tha": 6282,
      "remo": 6283,
      "pr": 6284,
      "Ġinfuse": 6285,
      "second": 6286,
      "Ġsubmerged": 6287,
      "crock": 6288,
      "batter": 6289,
      "shine": 6290,
      "Ġways": 6291,
      "Ġstirred": 6292,
      "Ġcrazy": 6293,
      "Ġbriskly": 6294,
      "Ġlose": 6295,
      "Ġstrands": 6296,
      "Ġ220": 6297,
      "Ġdeer": 6298,
      "cak": 6299,
      "Ġrender": 6300,
      "turn": 6301,
      "hentic": 6302,
      "Ġjuniper": 6303,
      "Ġ=": 6304,
      "Ġforget": 6305,
      "Ġwiener": 6306,
      "Ġprofess": 6307,
      "line": 6308,
      "Ġambrosia": 6309,
      "ridge": 6310,
      "Ġrange": 6311,
      "Ġnest": 6312,
      "rine": 6313,
      "Ġpartner": 6314,
      "Ġtum": 6315,
      "Ġbunch": 6316,
      "Ġstarted": 6317,
      "Ġeighth": 6318,
      "atziki": 6319,
      "Ġcafe": 6320,
      "Ġchilling": 6321,
      "Ġgy": 6322,
      "Ġbraising": 6323,
      "iments": 6324,
      "Ġsmothered": 6325,
      "Ġpumpernickel": 6326,
      "Ġcacci": 6327,
      "though": 6328,
      "coconut": 6329,
      "Ġtidbits": 6330,
      "lb": 6331,
      "Ġsprite": 6332,
      "where": 6333,
      "wal": 6334,
      "uccino": 6335,
      "Ġmould": 6336,
      "Ġtines": 6337,
      "Ġhalloween": 6338,
      "Ġrefrid": 6339,
      "Ġpeg": 6340,
      "prefer": 6341,
      "Ġbibb": 6342,
      "jack": 6343,
      "Ġusda": 6344,
      "Ġ____": 6345,
      "Ġtree": 6346,
      "Ġpeeling": 6347,
      "Ġsanta": 6348,
      "layer": 6349,
      "Ġbeetroot": 6350,
      "Ġlifting": 6351,
      "Ġ130": 6352,
      "fur": 6353,
      "quef": 6354,
      "Ġszech": 6355,
      "Ġkombu": 6356,
      "Ġpanna": 6357,
      "Ġdepend": 6358,
      "Ġregularly": 6359,
      "Ġchiffonade": 6360,
      "Ġrequire": 6361,
      "_,": 6362,
      "large": 6363,
      "Ġbetty": 6364,
      "Ġclump": 6365,
      "Ġ46": 6366,
      "Ġtzatziki": 6367,
      "Ġprofessional": 6368,
      "iser": 6369,
      "Ġdraft": 6370,
      "Ġcha": 6371,
      "Ġjoy": 6372,
      "Ġmashing": 6373,
      "Ġran": 6374,
      "Ġupon": 6375,
      "naid": 6376,
      "hydrated": 6377,
      "Ġfavour": 6378,
      "ku": 6379,
      "Ġ125": 6380,
      "Ġearth": 6381,
      "Ġknox": 6382,
      "pos": 6383,
      "Ġcurly": 6384,
      "Ġfeels": 6385,
      "Ġthi": 6386,
      "Ġexactly": 6387,
      "quefort": 6388,
      "ugreek": 6389,
      "grain": 6390,
      "Ġbeautiful": 6391,
      "Ġexposed": 6392,
      "Ġturnovers": 6393,
      "Ġfritos": 6394,
      "Ġlovely": 6395,
      "Ġbutterfinger": 6396,
      "bing": 6397,
      "Ġmack": 6398,
      "Ġtbls": 6399,
      "Ġbrulee": 6400,
      "Ġkitche": 6401,
      "sley": 6402,
      "Ġtblsp": 6403,
      "Ġforest": 6404,
      "mushroom": 6405,
      "Ġorleans": 6406,
      "Ġcobs": 6407,
      "Ġspelt": 6408,
      "Ġshiso": 6409,
      "Ġsaran": 6410,
      "inness": 6411,
      "Ġfavourite": 6412,
      "nes": 6413,
      "Ġunfold": 6414,
      "Ġroquefort": 6415,
      "Ġprev": 6416,
      "cinnamon": 6417,
      "han": 6418,
      "400": 6419,
      "ddy": 6420,
      "Ġruby": 6421,
      "Ġpralines": 6422,
      "Ġquantity": 6423,
      "Ġdollops": 6424,
      "owel": 6425,
      "Ġjus": 6426,
      "Ġfaster": 6427,
      "Ġct": 6428,
      "Ġpetite": 6429,
      "Ġfondant": 6430,
      "Ġgarl": 6431,
      "Ġauthentic": 6432,
      "Ġhu": 6433,
      "Ġcarbonara": 6434,
      "Ġfenugreek": 6435,
      "Ġkitchenaid": 6436,
      "which": 6437,
      "Ġlive": 6438,
      "Ġcourget": 6439,
      "Ġgranita": 6440,
      "asant": 6441,
      "teen": 6442,
      "Ġbloody": 6443,
      "Ġ_____,": 6444,
      "Ġmole": 6445,
      "oncini": 6446,
      "Ġdiff": 6447,
      "Ġbraise": 6448,
      "Ġtand": 6449,
      "Ġoxtail": 6450,
      "Ġsimmers": 6451,
      "sso": 6452,
      "Ġmyrecipes": 6453,
      "Ġsliver": 6454,
      "lin": 6455,
      "Ġtrove": 6456,
      "Ġunpeeled": 6457,
      "Ġsoupy": 6458,
      "Ġpartnership": 6459,
      "gested": 6460,
      "Ġtartlets": 6461,
      "inity": 6462,
      "Ġlic": 6463,
      "Ġgranular": 6464,
      "Ġudon": 6465,
      "Ġmyplate": 6466,
      "Ġpulling": 6467,
      "discard": 6468,
      "Ġparfaits": 6469,
      "Ġcacciatore": 6470,
      "Ġconfit": 6471,
      "Ġ175": 6472,
      "altern": 6473,
      "Ġtidbit": 6474,
      "Ġcroissant": 6475,
      "Ġcak": 6476,
      "pineapple": 6477,
      "lock": 6478,
      "Ġcotta": 6479,
      "aka": 6480,
      "coated": 6481,
      "Ġmilky": 6482,
      "atouille": 6483,
      "back": 6484,
      "Ġaj": 6485,
      "Ġwieners": 6486,
      "reme": 6487,
      "375": 6488,
      "Ġbic": 6489,
      "Ġduty": 6490,
      "Ġmm": 6491,
      "Ġbigger": 6492,
      "22": 6493,
      "Ġcheer": 6494,
      "Ġchoc": 6495,
      "Ġshucked": 6496,
      "Ġkaff": 6497,
      "Ġbreadsticks": 6498,
      "Ġnectarines": 6499,
      "Ġfudgy": 6500,
      "erel": 6501,
      "lett": 6502,
      "Ġcause": 6503,
      "Ġfab": 6504,
      "Ġuntill": 6505,
      "Ġjarred": 6506,
      "Ġslivers": 6507,
      "Ġbutterfly": 6508,
      "Ġcarmel": 6509,
      "Ġspooning": 6510,
      "Ġsilpat": 6511,
      "Ġratatouille": 6512,
      "Ġmochi": 6513,
      "Ġfeet": 6514,
      "Ġsuggested": 6515,
      "Ġchi": 6516,
      "Ġsolution": 6517,
      "Ġ:)": 6518,
      "Ġadds": 6519,
      "Ġterrine": 6520,
      "Ġbologna": 6521,
      "ores": 6522,
      "tens": 6523,
      "Ġchilly": 6524,
      "Ġtasting": 6525,
      "Ġresist": 6526,
      "Ġwhisked": 6527,
      "space": 6528,
      "Ġportuguese": 6529,
      "Ġpeek": 6530,
      "Ġpopsicle": 6531,
      "Ġjamaican": 6532,
      "ited": 6533,
      "Ġpollo": 6534,
      "Ġbutterflied": 6535,
      "Ġbringing": 6536,
      "Ġcrown": 6537,
      "tely": 6538,
      "Ġprecooked": 6539,
      "easy": 6540,
      "Ġlit": 6541,
      "Ġbonito": 6542,
      "Ġroyal": 6543,
      "ington": 6544,
      "Ġsliders": 6545,
      "Ġgingersnaps": 6546,
      "alent": 6547,
      "Ġ**": 6548,
      "non": 6549,
      "00": 6550,
      "Ġselt": 6551,
      "zle": 6552,
      "Ġnine": 6553,
      "enty": 6554,
      "Ġblt": 6555,
      "vegetable": 6556,
      "remove": 6557,
      "board": 6558,
      "Ġseltzer": 6559,
      "lini": 6560,
      "Ġchallah": 6561,
      "inf": 6562,
      "basil": 6563,
      "Ġartific": 6564,
      "Ġreleased": 6565,
      "Ġcanner": 6566,
      "Ġnormal": 6567,
      "once": 6568,
      "Ġmugs": 6569,
      "aid": 6570,
      "Ġtied": 6571,
      "Ġbakes": 6572,
      "Ġengland": 6573,
      "Ġparboil": 6574,
      "ipan": 6575,
      "Ġtrying": 6576,
      "Ġprocessing": 6577,
      "Ġbus": 6578,
      "Ġtwenty": 6579,
      "Ġsunshine": 6580,
      "Ġpoaching": 6581,
      "Ġbom": 6582,
      "neck": 6583,
      "Ġdressed": 6584,
      "Ġmenthe": 6585,
      "pres": 6586,
      "Ġpackaged": 6587,
      "Ġmountain": 6588,
      "ices": 6589,
      "Ġhardened": 6590,
      "viche": 6591,
      "\")": 6592,
      "Ġhr": 6593,
      "Ġbir": 6594,
      "mins": 6595,
      "Ġnu": 6596,
      "Ġbratwurst": 6597,
      "nay": 6598,
      "saturated": 6599,
      "Ġbreakstone": 6600,
      "Ġpare": 6601,
      "Ġpicture": 6602,
      "Ġkisse": 6603,
      "issi": 6604,
      "dry": 6605,
      "Ġdom": 6606,
      "Ġhappy": 6607,
      "peanut": 6608,
      "Ġbraz": 6609,
      "Ġchic": 6610,
      "Ġsmoothing": 6611,
      "Ġseparated": 6612,
      "Ġhoag": 6613,
      "Ġgumd": 6614,
      "Ġts": 6615,
      "Ġmanche": 6616,
      "preferably": 6617,
      "bla": 6618,
      "Ġmackerel": 6619,
      "Ġbreading": 6620,
      "Ġdie": 6621,
      "Ġlicor": 6622,
      "Ġkaffir": 6623,
      "sto": 6624,
      "Ġgolf": 6625,
      "ights": 6626,
      "inny": 6627,
      "Ġfif": 6628,
      "Ġmandoline": 6629,
      "Ġbroiling": 6630,
      "aps": 6631,
      "Ġtempura": 6632,
      "Ġcroissants": 6633,
      "vegan": 6634,
      "Ġchanges": 6635,
      "Ġsic": 6636,
      "Ġresting": 6637,
      "banana": 6638,
      "Ġstur": 6639,
      "tbs": 6640,
      "inis": 6641,
      "Ġsatay": 6642,
      "Ġseeded": 6643,
      "Ġcornflak": 6644,
      "Ġgarnishing": 6645,
      "Ġmist": 6646,
      "Ġguinness": 6647,
      "cluding": 6648,
      "Ġnectarine": 6649,
      "elli": 6650,
      "Ġcappuccino": 6651,
      "Ġpaneer": 6652,
      "Ġcommer": 6653,
      "Ġfrankfur": 6654,
      "Ġpiecrust": 6655,
      "Ġhope": 6656,
      "Ġgarlicky": 6657,
      "Ġmanchego": 6658,
      "oe": 6659,
      "Ġbear": 6660,
      "Ġlobsters": 6661,
      "Ġartificial": 6662,
      "Ġcolors": 6663,
      "mother": 6664,
      "raw": 6665,
      "Ġsingl": 6666,
      "herb": 6667,
      "oulade": 6668,
      "Ġknuds": 6669,
      "then": 6670,
      "Ġshreds": 6671,
      "Ġusual": 6672,
      "Ġragout": 6673,
      "run": 6674,
      "issippi": 6675,
      "Ã±": 6676,
      "Ġtwists": 6677,
      "sin": 6678,
      "Ġrump": 6679,
      "oya": 6680,
      "Ġpoly": 6681,
      "Ġmississippi": 6682,
      "Ġknudsen": 6683,
      "Ġafric": 6684,
      "Ġdur": 6685,
      "nie": 6686,
      "Ġmason": 6687,
      "Ġfourths": 6688,
      "Ġmartha": 6689,
      "Ġrepres": 6690,
      "ky": 6691,
      "Ġtapped": 6692,
      "Ġdesign": 6693,
      "Ġshaping": 6694,
      "Ġwaiting": 6695,
      "Ġrewarm": 6696,
      "Ġequiv": 6697,
      "colored": 6698,
      "Ġresid": 6699,
      "Ġantip": 6700,
      "Ġidea": 6701,
      "Ġwatchers": 6702,
      "Ġspec": 6703,
      "mented": 6704,
      "Ġpersonal": 6705,
      "Ġrutabaga": 6706,
      "Ġshrink": 6707,
      "Ġneut": 6708,
      "Ġdirty": 6709,
      "17": 6710,
      "iller": 6711,
      "tan": 6712,
      "Ġjimm": 6713,
      "Ġconvection": 6714,
      "oori": 6715,
      "Ġdil": 6716,
      "Ġgloves": 6717,
      "Ġempanadas": 6718,
      "acc": 6719,
      "Ġwatergate": 6720,
      "yn": 6721,
      "Ġq": 6722,
      "Ġclement": 6723,
      "Ġdarker": 6724,
      "Ġfalls": 6725,
      "ni": 6726,
      "Ġ360": 6727,
      "Ġea": 6728,
      "Ġbroccolini": 6729,
      "Ġpassing": 6730,
      "Ġpuddings": 6731,
      "!!!": 6732,
      "Ġpoured": 6733,
      "Ġener": 6734,
      "Ġstrokes": 6735,
      "Ġbeefy": 6736,
      "Ġcrustless": 6737,
      "Ġamish": 6738,
      "Ġmassage": 6739,
      "foil": 6740,
      "Ġneutral": 6741,
      "aring": 6742,
      "Ġsizes": 6743,
      "Ġchildren": 6744,
      "hest": 6745,
      "Ġti": 6746,
      "Ġthickly": 6747,
      "squ": 6748,
      "Ġruns": 6749,
      "long": 6750,
      "Ġfru": 6751,
      "Ġharicot": 6752,
      "Ġlatkes": 6753,
      "Ġshave": 6754,
      "Ġmign": 6755,
      "Ġkumqu": 6756,
      "Ġmarzipan": 6757,
      "Ġloses": 6758,
      "Ġflor": 6759,
      "Ġpinching": 6760,
      "Ġmexico": 6761,
      "Ġcarbonated": 6762,
      "steak": 6763,
      "Ġwise": 6764,
      "Ġporridge": 6765,
      "Ġtook": 6766,
      "Ġdivinity": 6767,
      "Ġtrial": 6768,
      "Ġextreme": 6769,
      "Ġkent": 6770,
      "sided": 6771,
      "Ġsafflower": 6772,
      "smo": 6773,
      "Ġpun": 6774,
      "Ġothers": 6775,
      "Ġcontains": 6776,
      "Ġthreads": 6777,
      "Ġlicorice": 6778,
      "Ġdad": 6779,
      "Ġwisk": 6780,
      "Ġtint": 6781,
      "Ġfloweret": 6782,
      "Ġloaded": 6783,
      "eye": 6784,
      "Ġpots": 6785,
      "Ġdiffic": 6786,
      "Ġmeasured": 6787,
      "when": 6788,
      "Ġkirsch": 6789,
      "hen": 6790,
      "hind": 6791,
      "aces": 6792,
      "Ġwilts": 6793,
      "Ġearly": 6794,
      "Ġfettucine": 6795,
      "marin": 6796,
      "Ġtenderizer": 6797,
      "ndon": 6798,
      "rac": 6799,
      "Ġcrumbl": 6800,
      "Ġtagli": 6801,
      "Ġtried": 6802,
      "Ġessent": 6803,
      "reggiano": 6804,
      "Ġplank": 6805,
      "Ġpremi": 6806,
      "Ġladyfinger": 6807,
      "br": 6808,
      "Ġsurfaces": 6809,
      "Ġheadspace": 6810,
      "Ġcalc": 6811,
      "Ġsumac": 6812,
      "Ġtesting": 6813,
      "Ġwind": 6814,
      "Ġhan": 6815,
      "Ġmind": 6816,
      "Ġcarc": 6817,
      "Ġkugel": 6818,
      "ahead": 6819,
      "Ġgarnishes": 6820,
      "some": 6821,
      "Ġfingerling": 6822,
      "ele": 6823,
      "cus": 6824,
      "cker": 6825,
      "Ġcoming": 6826,
      "Ġfrise": 6827,
      "Ġdirects": 6828,
      "Ġfool": 6829,
      "Ġstoring": 6830,
      "Ġbelieve": 6831,
      "Ġtell": 6832,
      "Ġconfetti": 6833,
      "Ġscot": 6834,
      "Ġwre": 6835,
      "Ġequivalent": 6836,
      "Ġfrisee": 6837,
      "Ġguava": 6838,
      "Ġkitchens": 6839,
      "Ġprime": 6840,
      "blended": 6841,
      "Ġ47": 6842,
      "gue": 6843,
      "book": 6844,
      "page": 6845,
      "100": 6846,
      "Ġblanched": 6847,
      "apes": 6848,
      "Ġsuc": 6849,
      "Ġtonight": 6850,
      "imin": 6851,
      "aho": 6852,
      "Ġboo": 6853,
      "fo": 6854,
      "Ġtandoori": 6855,
      "Ġlun": 6856,
      "cooking": 6857,
      "honey": 6858,
      "Ġexper": 6859,
      "Ġfillings": 6860,
      "Ġpetals": 6861,
      "Ġfronds": 6862,
      "astern": 6863,
      "ĠsautÃ©": 6864,
      "Ġkentucky": 6865,
      "Ġjalape": 6866,
      "Ġhunt": 6867,
      "Ġphe": 6868,
      "Ġpiqu": 6869,
      "ob": 6870,
      "Ġjerky": 6871,
      "Ġrepresentation": 6872,
      "Ġlondon": 6873,
      "Ġmoment": 6874,
      "Ġcommercial": 6875,
      "Ġbulbs": 6876,
      "degree": 6877,
      "Ġcordon": 6878,
      "Ġmilkshake": 6879,
      "Ġscum": 6880,
      "Ġdr": 6881,
      "Ġcolle": 6882,
      "bble": 6883,
      "Ġchocolates": 6884,
      "cran": 6885,
      "Ġhung": 6886,
      "Ġincrements": 6887,
      "Ġmarked": 6888,
      "Ġpepperoncini": 6889,
      "Ġscraper": 6890,
      "Ġsounds": 6891,
      "Ġwreath": 6892,
      "cra": 6893,
      "ani": 6894,
      "Ġbottles": 6895,
      "Ġtwink": 6896,
      "yl": 6897,
      "othing": 6898,
      "iam": 6899,
      "Ġpkg": 6900,
      "Ġperiodically": 6901,
      "Ġachieved": 6902,
      "ery": 6903,
      "mbling": 6904,
      "Ġgiblet": 6905,
      "bacon": 6906,
      "Ġalone": 6907,
      "Ġwhey": 6908,
      "Ġcontaining": 6909,
      "220": 6910,
      "leave": 6911,
      "oumi": 6912,
      "Ġsuggestion": 6913,
      "Ġhomo": 6914,
      "Ġsnickerdoodles": 6915,
      "Ġfilter": 6916,
      "Ġflavours": 6917,
      "Ġstraws": 6918,
      "Ġperfor": 6919,
      "Ġceviche": 6920,
      "Ġhigher": 6921,
      "Ġmung": 6922,
      "towel": 6923,
      "Ġfalaf": 6924,
      "Ġremoulade": 6925,
      "gant": 6926,
      "date": 6927,
      "Ġmc": 6928,
      "till": 6929,
      "walnut": 6930,
      "Ġshir": 6931,
      "Ġhandheld": 6932,
      "Ġtagine": 6933,
      "Ġrefreshing": 6934,
      "Ġtablespoonful": 6935,
      "Ġwatching": 6936,
      "baking": 6937,
      "Ġallows": 6938,
      "initely": 6939,
      "Ġproduce": 6940,
      "Ġpapp": 6941,
      "Ġmignon": 6942,
      "Ġchang": 6943,
      "Ġidaho": 6944,
      "ented": 6945,
      "Ġmalted": 6946,
      "Ġamar": 6947,
      "rese": 6948,
      "Ġmaster": 6949,
      "heim": 6950,
      "Ġcopycat": 6951,
      "Ġease": 6952,
      "Ġshut": 6953,
      "atar": 6954,
      "reg": 6955,
      "Ġfoot": 6956,
      "Ġslushy": 6957,
      "Ġeveryone": 6958,
      "Ġmusc": 6959,
      "racao": 6960,
      "chu": 6961,
      "Ġpremium": 6962,
      "bar": 6963,
      "Ġunseasoned": 6964,
      "Ġwilliam": 6965,
      "Ġwrapping": 6966,
      "Ġcuracao": 6967,
      "Ġjellyroll": 6968,
      "Ġsavoy": 6969,
      "Ġgray": 6970,
      "Ġhomogen": 6971,
      "Ġabsol": 6972,
      "Ġpeppered": 6973,
      "Ġmints": 6974,
      "Ġwatery": 6975,
      "Ġcoti": 6976,
      "Ġmont": 6977,
      "Ġchilis": 6978,
      "Ġfleur": 6979,
      "Ġgram": 6980,
      "Ġafrican": 6981,
      "ience": 6982,
      "noli": 6983,
      "Ġash": 6984,
      "Ġgrandmother": 6985,
      "Ġcrissc": 6986,
      "Ġreducing": 6987,
      "Ġwan": 6988,
      "Ġlind": 6989,
      "Ġbirds": 6990,
      "Ġelegant": 6991,
      "Ġcotija": 6992,
      "Ġdoesnt": 6993,
      "asto": 6994,
      "mark": 6995,
      "Ġsunny": 6996,
      "ulous": 6997,
      "Ġmonte": 6998,
      "imal": 6999,
      "Ġburners": 7000,
      "Ġchoco": 7001,
      "Ġhint": 7002,
      "Ġsardines": 7003,
      "soft": 7004,
      "chiette": 7005,
      "Ġexpand": 7006,
      "Ġszechuan": 7007,
      "Ġdilute": 7008,
      "ates": 7009,
      "Ġana": 7010,
      "Ġcracks": 7011,
      "Ġchantere": 7012,
      "rot": 7013,
      "Ġarbol": 7014,
      "Ġcri": 7015,
      "Ġbento": 7016,
      "Ġroots": 7017,
      "put": 7018,
      "Ġmen": 7019,
      "Ġja": 7020,
      "Ġgarnishe": 7021,
      "bonate": 7022,
      "diameter": 7023,
      "Ġindicated": 7024,
      "full": 7025,
      "Ġdrinking": 7026,
      "Ġboysen": 7027,
      "Ġrubbing": 7028,
      "Ġfizz": 7029,
      "Ġadjusting": 7030,
      "Ġjew": 7031,
      "Ġmeet": 7032,
      "Ġcurdle": 7033,
      "Ġskinny": 7034,
      "Ġpurchased": 7035,
      "Ġantipasto": 7036,
      "Ġhoagie": 7037,
      "riac": 7038,
      "raisin": 7039,
      "Ġbart": 7040,
      "Ġchur": 7041,
      "spiced": 7042,
      "150": 7043,
      "holic": 7044,
      "Ġpresentation": 7045,
      "lle": 7046,
      "arbonate": 7047,
      "Ġuses": 7048,
      "Ġrocket": 7049,
      "vre": 7050,
      "Ġeastern": 7051,
      "imi": 7052,
      "beef": 7053,
      "Ġagar": 7054,
      "Ġshown": 7055,
      "Ġbicarbonate": 7056,
      "Ġindent": 7057,
      "Ġcolorful": 7058,
      "Ġsicilian": 7059,
      "Ġdifficult": 7060,
      "elve": 7061,
      "Ġjet": 7062,
      "Ġdecoratively": 7063,
      "Ġtony": 7064,
      "Ġshaken": 7065,
      "Ġvale": 7066,
      "Ġmeatless": 7067,
      "Ġscaled": 7068,
      "Ġmatter": 7069,
      "ynold": 7070,
      "Ġnorm": 7071,
      "Ġblondies": 7072,
      "Ġhungry": 7073,
      "otic": 7074,
      "Ġharina": 7075,
      "Ġbehind": 7076,
      "buttered": 7077,
      "aren": 7078,
      "Ġbav": 7079,
      "Ġbliste": 7080,
      "Ġsturdy": 7081,
      "Ġanaheim": 7082,
      "pperware": 7083,
      "Ġcones": 7084,
      "Ġceleriac": 7085,
      "Ġglace": 7086,
      "Ġkaiser": 7087,
      "Ġstars": 7088,
      "Ġrow": 7089,
      "Ġgiving": 7090,
      "Ġforth": 7091,
      "Ġjimmy": 7092,
      "Ġflex": 7093,
      "Ġpaleo": 7094,
      "Ġpeper": 7095,
      "Ġtwelve": 7096,
      "Ġphil": 7097,
      "Ġlife": 7098,
      "molata": 7099,
      "sic": 7100,
      "Ġreynold": 7101,
      "Ġdiluted": 7102,
      "Ġspecialty": 7103,
      "Ġtucking": 7104,
      "Ġalthough": 7105,
      "Ġsoap": 7106,
      "Ġtoll": 7107,
      "any": 7108,
      "lava": 7109,
      "Ġcrisscross": 7110,
      "Ġoh": 7111,
      "Ġwest": 7112,
      "Ġtrail": 7113,
      "ĠâĢĺ": 7114,
      "Ġaren": 7115,
      "minutes": 7116,
      "ako": 7117,
      "Ġnorth": 7118,
      "bre": 7119,
      "oodle": 7120,
      "Ġdeflate": 7121,
      "Ġtenderness": 7122,
      "bis": 7123,
      "Ġcalico": 7124,
      "onzu": 7125,
      "Ġgremolata": 7126,
      "hl": 7127,
      "Ġorec": 7128,
      "drained": 7129,
      "Ġseparating": 7130,
      "flow": 7131,
      "cola": 7132,
      "Ġmoj": 7133,
      "Ġpopovers": 7134,
      "nde": 7135,
      "ffl": 7136,
      "atelle": 7137,
      "Ġcaprese": 7138,
      "Ġclay": 7139,
      "Ġknob": 7140,
      "astic": 7141,
      "Ġbroad": 7142,
      "Ġarm": 7143,
      "temp": 7144,
      "Ġsits": 7145,
      "Ġpartly": 7146,
      "Ġnam": 7147,
      "stirring": 7148,
      "spin": 7149,
      "Ġsubsides": 7150,
      "Ġloll": 7151,
      "cranberry": 7152,
      "23": 7153,
      "anos": 7154,
      "ghum": 7155,
      "Ġcopper": 7156,
      "Ġponzu": 7157,
      "Ġjale": 7158,
      "Ġdredging": 7159,
      "Ġging": 7160,
      "ater": 7161,
      "pic": 7162,
      "Ġmelba": 7163,
      "Ġjoint": 7164,
      "Ġheats": 7165,
      "tsp": 7166,
      "Ġaccordingly": 7167,
      "tbsp": 7168,
      "Ġcalcium": 7169,
      "Ġorecchiette": 7170,
      "Ġmarkets": 7171,
      "Ġray": 7172,
      "Ġboat": 7173,
      "Ġhass": 7174,
      "Ġpits": 7175,
      "Ġpulsing": 7176,
      "Ġnothing": 7177,
      "gluten": 7178,
      "Ġcarcass": 7179,
      "Ġlatte": 7180,
      "Ġtupperware": 7181,
      "Ġbartlett": 7182,
      "Ġsorghum": 7183,
      "based": 7184,
      "Ġdarken": 7185,
      "Ġchunked": 7186,
      "Ġdelicate": 7187,
      "Ġenv": 7188,
      "Ġimpro": 7189,
      "Ġsuey": 7190,
      "Ġstacks": 7191,
      "Ġhaving": 7192,
      "Ġfoaming": 7193,
      "ellogg": 7194,
      "Ġfalafel": 7195,
      "wards": 7196,
      "za": 7197,
      "oule": 7198,
      "Ġgift": 7199,
      "Ġsucc": 7200,
      "check": 7201,
      "Ġbonnet": 7202,
      "Ġcookbook": 7203,
      "alternatively": 7204,
      "Ġkellogg": 7205,
      "Ġobtain": 7206,
      "imeter": 7207,
      "muff": 7208,
      "aj": 7209,
      "Ġskimmed": 7210,
      "Ġalternative": 7211,
      "Ġspider": 7212,
      "Ġdoubles": 7213,
      "Ġmuen": 7214,
      "Ġpark": 7215,
      "after": 7216,
      "Ġextending": 7217,
      "Ġmuenster": 7218,
      "tie": 7219,
      "urized": 7220,
      "Ġperforations": 7221,
      "Ġblistered": 7222,
      "adel": 7223,
      "Ġspringy": 7224,
      "including": 7225,
      "roz": 7226,
      "Ġsealable": 7227,
      "Ġentirely": 7228,
      "Ġtagliatelle": 7229,
      "Ġ...": 7230,
      "Ġgrates": 7231,
      "Ġbaklava": 7232,
      "Ġextremely": 7233,
      "Ġthroughly": 7234,
      "Ġwip": 7235,
      "Ġ49": 7236,
      "Ġsoybean": 7237,
      "Ġessential": 7238,
      "Ġgummy": 7239,
      "Ġheld": 7240,
      "Ġelimin": 7241,
      "Ġ199": 7242,
      "Ġcustards": 7243,
      "Ġhandling": 7244,
      "Ġboats": 7245,
      "Ġrellen": 7246,
      "Ġfabulous": 7247,
      "Ġgrade": 7248,
      "Ġsplatter": 7249,
      "Ġimp": 7250,
      "Ġferment": 7251,
      "Ġvents": 7252,
      "isco": 7253,
      "Ġhit": 7254,
      "Ġpheasant": 7255,
      "Ġcarolina": 7256,
      "pour": 7257,
      "Ġcitron": 7258,
      "Ġmit": 7259,
      "Ġpapers": 7260,
      "Ġpopping": 7261,
      "era": 7262,
      "Ġwall": 7263,
      "Ġquince": 7264,
      "Ġbarb": 7265,
      "Ġsizzles": 7266,
      "spinach": 7267,
      "Ġmam": 7268,
      "Ġknock": 7269,
      "atini": 7270,
      "drain": 7271,
      "Ġroe": 7272,
      "Ġtrimming": 7273,
      "Ġforce": 7274,
      "Ġnico": 7275,
      "Ġcasings": 7276,
      "Ġpats": 7277,
      "posable": 7278,
      "Ġmonster": 7279,
      "Ġmarbled": 7280,
      "Ġhocks": 7281,
      "Ġfettucini": 7282,
      "Ã±o": 7283,
      "Ġlollip": 7284,
      "Ġsus": 7285,
      "Ã©e": 7286,
      "ccoli": 7287,
      "rising": 7288,
      "tro": 7289,
      "Ġvick": 7290,
      "Ġhighball": 7291,
      "oat": 7292,
      "ppa": 7293,
      "Ġtoasty": 7294,
      "ndairy": 7295,
      "Ġnutrition": 7296,
      "print": 7297,
      "refri": 7298,
      "Ġpost": 7299,
      "Ġza": 7300,
      "Ġoverbeat": 7301,
      "Ġhardens": 7302,
      "Ġstays": 7303,
      "Ġsparerib": 7304,
      "Ġhighest": 7305,
      "yu": 7306,
      "Ġnondairy": 7307,
      "ados": 7308,
      "Ġunless": 7309,
      "there": 7310,
      "Ġmeans": 7311,
      "rito": 7312,
      "Ġsofter": 7313,
      "Ġunwrapped": 7314,
      "Ġsubstitut": 7315,
      "Ġburned": 7316,
      "Ġchopper": 7317,
      "Ġ135": 7318,
      "Ġnicoise": 7319,
      "good": 7320,
      "Ġcountertop": 7321,
      "Ġcontent": 7322,
      "icc": 7323,
      "Ġglue": 7324,
      "phia": 7325,
      "Ġwestern": 7326,
      "Ġpulses": 7327,
      "Ġdisposable": 7328,
      "Ġdurkee": 7329,
      "allow": 7330,
      "Ġenergy": 7331,
      "Ġsays": 7332,
      "Ġwar": 7333,
      "Ġcondiments": 7334,
      "Ġsilky": 7335,
      "Ġbavarian": 7336,
      "jang": 7337,
      "Ġcoul": 7338,
      "Ġbirth": 7339,
      "Ġcrink": 7340,
      "Ġricer": 7341,
      "Ġrellenos": 7342,
      "cious": 7343,
      "Ġpage": 7344,
      "Ġcurds": 7345,
      "Ġspaet": 7346,
      "Ġchik": 7347,
      "ilton": 7348,
      "Ġhors": 7349,
      "Ġcavities": 7350,
      "Ġgizz": 7351,
      "such": 7352,
      "Ġtrick": 7353,
      "got": 7354,
      "Ġtinfoil": 7355,
      "light": 7356,
      "Ġthickening": 7357,
      "Ġsign": 7358,
      "Ġitaliano": 7359,
      "Ġoele": 7360,
      "Ġshare": 7361,
      "broccoli": 7362,
      "Ġnaturally": 7363,
      "Ġwhoo": 7364,
      "Ġdiscs": 7365,
      "ouleh": 7366,
      "esan": 7367,
      "Ġshak": 7368,
      "quarters": 7369,
      "Ġpuppy": 7370,
      "Ġoelek": 7371,
      "Ġdandel": 7372,
      "Ġpav": 7373,
      "Ġvie": 7374,
      "Ġspooned": 7375,
      "Ġstrings": 7376,
      "grilled": 7377,
      "Ġramp": 7378,
      "Ġshrimps": 7379,
      "Ġbirthday": 7380,
      "Ġspaced": 7381,
      "Ġpersian": 7382,
      "Ġnog": 7383,
      "Ġblitz": 7384,
      "Ġglut": 7385,
      "Ġgingered": 7386,
      "Ġshears": 7387,
      "eric": 7388,
      "Ġpassionfruit": 7389,
      "Ġblacken": 7390,
      "fts": 7391,
      "Ġsmoothly": 7392,
      "Ġ110": 7393,
      "ena": 7394,
      "Ġsnug": 7395,
      "Ġcoulis": 7396,
      "Ġincluded": 7397,
      "dv": 7398,
      "ud": 7399,
      "Ġcloud": 7400,
      "Ġshortcakes": 7401,
      "Ġlarg": 7402,
      "Ġskillets": 7403,
      "acity": 7404,
      "Ġsauv": 7405,
      "Ġdean": 7406,
      "Ġhay": 7407,
      "Ġhurry": 7408,
      "Ġropes": 7409,
      "Ġtostada": 7410,
      "Ġlus": 7411,
      "Ġfarmer": 7412,
      "Ġhandles": 7413,
      "Ġkash": 7414,
      "Ġjalepen": 7415,
      "son": 7416,
      "Ġcalv": 7417,
      "Ġrepla": 7418,
      "Ġdesc": 7419,
      "Ġgochu": 7420,
      "Ġpinches": 7421,
      "Ġlining": 7422,
      "Ġcongeal": 7423,
      "Ġbeach": 7424,
      "ffy": 7425,
      "Ġbill": 7426,
      "Ġassembling": 7427,
      "Ġconcentrated": 7428,
      "iles": 7429,
      "frying": 7430,
      "done": 7431,
      "%)": 7432,
      "nies": 7433,
      "Ġcrisped": 7434,
      "Ġsingles": 7435,
      "Ġmarg": 7436,
      "Ġflexible": 7437,
      "Ġgrinds": 7438,
      "mbert": 7439,
      "Ġmayona": 7440,
      "fire": 7441,
      "Ġbia": 7442,
      "that": 7443,
      "Ġsauvignon": 7444,
      "etida": 7445,
      "should": 7446,
      "Ġhum": 7447,
      "Ġhormel": 7448,
      "und": 7449,
      "ati": 7450,
      "shes": 7451,
      "zon": 7452,
      "Ġign": 7453,
      "oeuv": 7454,
      "Ġspaetzle": 7455,
      "yo": 7456,
      "Ġraita": 7457,
      "even": 7458,
      "Ġbad": 7459,
      "Ġfrosty": 7460,
      "Ġins": 7461,
      "Ġkon": 7462,
      "Ġyuzu": 7463,
      "Ġsweeter": 7464,
      "Ġdaiqu": 7465,
      "quite": 7466,
      "rasp": 7467,
      "cks": 7468,
      "Ġstreaks": 7469,
      "Ġballer": 7470,
      "ister": 7471,
      "Ġdehydrated": 7472,
      "Ġensuring": 7473,
      "Ġdeeply": 7474,
      "your": 7475,
      "Ġstops": 7476,
      "Ġcupcak": 7477,
      "tles": 7478,
      "ital": 7479,
      "Ġnotice": 7480,
      "Ġjoin": 7481,
      "crow": 7482,
      "Ġtostadas": 7483,
      "Ġsich": 7484,
      "Ġgoya": 7485,
      "chip": 7486,
      "cky": 7487,
      "Ġluscious": 7488,
      "Ġbands": 7489,
      "Ġabsorbent": 7490,
      "isbury": 7491,
      "past": 7492,
      "without": 7493,
      "Ġasaf": 7494,
      "Ġpourable": 7495,
      "325": 7496,
      "Ġsalisbury": 7497,
      "Ġpreserve": 7498,
      "Ġwanted": 7499,
      "Ġgh": 7500,
      "frozen": 7501,
      "Ġsectioned": 7502,
      "caramel": 7503,
      "Ġinn": 7504,
      "Ġdecad": 7505,
      "oncello": 7506,
      "Ġstilton": 7507,
      "Ġhill": 7508,
      "Ġsquirt": 7509,
      "Ġsultana": 7510,
      "Ġgirl": 7511,
      "Ġhull": 7512,
      "Ġherring": 7513,
      "Ġparticles": 7514,
      "Ġworche": 7515,
      "Ġshellfish": 7516,
      "adelphia": 7517,
      "ĠjalapeÃ±o": 7518,
      "Ġwel": 7519,
      "Ġchevre": 7520,
      "Ġlist": 7521,
      "Ġjan": 7522,
      "Ġpoblanos": 7523,
      "Ġgelato": 7524,
      "Ġcamembert": 7525,
      "Ġguide": 7526,
      "chool": 7527,
      "Ġcell": 7528,
      "Ġdesicc": 7529,
      "Ġlighten": 7530,
      "orge": 7531,
      "Ġsupp": 7532,
      "Ġtaffy": 7533,
      "Ġclassico": 7534,
      "ject": 7535,
      "Ġattra": 7536,
      "Ġmacer": 7537,
      "Ġarranging": 7538,
      "Ġlor": 7539,
      "Ġjellied": 7540,
      "Ġhusked": 7541,
      "tor": 7542,
      "Ġdandelion": 7543,
      "Ġtabb": 7544,
      "ardelle": 7545,
      "lers": 7546,
      "Ġparmigiana": 7547,
      "Ġquaker": 7548,
      "ĠsautÃ©ed": 7549,
      "sover": 7550,
      "Ġmonk": 7551,
      "ational": 7552,
      "Ġsichuan": 7553,
      "Ġdesiccated": 7554,
      "bay": 7555,
      "Ġcapacity": 7556,
      "Ġlimoncello": 7557,
      "Ġchardon": 7558,
      "braised": 7559,
      "Ġinsp": 7560,
      "ases": 7561,
      "raspberry": 7562,
      "Ġfut": 7563,
      "start": 7564,
      "Ġwhy": 7565,
      "Ġshouldn": 7566,
      "Ġporcup": 7567,
      "Ġmojito": 7568,
      "Ġtyp": 7569,
      "85": 7570,
      "pow": 7571,
      "Ġscratch": 7572,
      "Ġthirty": 7573,
      "Ġ155": 7574,
      "markets": 7575,
      "Ġfantastic": 7576,
      "Ġhandy": 7577,
      "Ġnormally": 7578,
      "Ġsupermarkets": 7579,
      "gon": 7580,
      "Ġmolded": 7581,
      "Ġmulled": 7582,
      "Ġimper": 7583,
      "Ġbaggie": 7584,
      "spray": 7585,
      "Ġstriped": 7586,
      "gent": 7587,
      "Ġref": 7588,
      "Ġfroth": 7589,
      "Ġtomatoe": 7590,
      "will": 7591,
      "zan": 7592,
      "Ġbind": 7593,
      "Ġcolla": 7594,
      "Ġsmart": 7595,
      "Ġsazon": 7596,
      "eli": 7597,
      "Ġprose": 7598,
      "Ġcannelloni": 7599,
      "Ġhav": 7600,
      "Ġproportions": 7601,
      "Ġtilting": 7602,
      "band": 7603,
      "pack": 7604,
      "amc": 7605,
      "estyle": 7606,
      "Ġabsor": 7607,
      "accioli": 7608,
      "tent": 7609,
      "anson": 7610,
      "cherry": 7611,
      "Ġassembled": 7612,
      "Ġdrape": 7613,
      "Ġgrouper": 7614,
      "Ġseitan": 7615,
      "Ġcompleted": 7616,
      "marinated": 7617,
      "Ġslicer": 7618,
      "Ġmostaccioli": 7619,
      "Ġcontinually": 7620,
      "Ġpetal": 7621,
      "Ġscooped": 7622,
      "Ġpeachy": 7623,
      "metal": 7624,
      "pression": 7625,
      "black": 7626,
      "Ġtheyre": 7627,
      "rinkle": 7628,
      "Ġkef": 7629,
      "Ġclaws": 7630,
      "lax": 7631,
      "Ġminted": 7632,
      "Ġchardonnay": 7633,
      "ghorn": 7634,
      "Ġarroz": 7635,
      "Ġwhoopie": 7636,
      "Ġtaken": 7637,
      "Ġrefridgerate": 7638,
      "Ġprosecco": 7639,
      "Ġphiladelphia": 7640,
      "Ġhyd": 7641,
      "Ġhear": 7642,
      "Ġdrafts": 7643,
      "Ġaust": 7644,
      "Ġgeno": 7645,
      "Ġmol": 7646,
      "leaf": 7647,
      "Ġsuet": 7648,
      "Ġango": 7649,
      "Ġtypes": 7650,
      "sw": 7651,
      "cookies": 7652,
      "Ġsouffles": 7653,
      "Ġcarameliz": 7654,
      "blue": 7655,
      "Ġschn": 7656,
      "stura": 7657,
      "Ġpappardelle": 7658,
      "Ġfriendly": 7659,
      "Ġyoull": 7660,
      "Ġpasteurized": 7661,
      "Ġleafy": 7662,
      "Ġpopsicles": 7663,
      "hat": 7664,
      "Ġlonghorn": 7665,
      "Ġattractive": 7666,
      "oman": 7667,
      "Ġcarob": 7668,
      "Ġsofrito": 7669,
      "Ġexch": 7670,
      "Ġ240": 7671,
      "Ġdelights": 7672,
      "combined": 7673,
      "Ġcupfuls": 7674,
      "Ġbos": 7675,
      "Ġtongue": 7676,
      "Ġcases": 7677,
      "Ġtorch": 7678,
      "ites": 7679,
      "Ġbegun": 7680,
      "Ġabsolute": 7681,
      "Ġangostura": 7682,
      "Ġshao": 7683,
      "Ġtan": 7684,
      "Ġwindow": 7685,
      "mixed": 7686,
      "food": 7687,
      "Ġest": 7688,
      "Ġdemer": 7689,
      "Ġelder": 7690,
      "Ġzu": 7691,
      "ropri": 7692,
      "Ġdeter": 7693,
      "Ġpinot": 7694,
      "ends": 7695,
      "Ġyears": 7696,
      "Ġpicks": 7697,
      "Ġrinds": 7698,
      "Ġpassover": 7699,
      "Ġboysenberry": 7700,
      "Ġconsider": 7701,
      "Ġreroll": 7702,
      "cur": 7703,
      "Ġfield": 7704,
      "olive": 7705,
      "Ġsin": 7706,
      "Ġhandfuls": 7707,
      "Ã®": 7708,
      "Ġsaltines": 7709,
      "rie": 7710,
      "urre": 7711,
      "Ġhalloumi": 7712,
      "color": 7713,
      "Ġtabbouleh": 7714,
      "Ġcin": 7715,
      "Ġnose": 7716,
      "Ġswanson": 7717,
      "Ġfuture": 7718,
      "Ġgrating": 7719,
      "inia": 7720,
      "Ġbuds": 7721,
      "ung": 7722,
      "Ġmarie": 7723,
      "Ġheaped": 7724,
      "Ġgumdrop": 7725,
      "Ġcapon": 7726,
      "Ġhollowed": 7727,
      "Ġbaguettes": 7728,
      "230": 7729,
      "rian": 7730,
      "Ġdense": 7731,
      "Ġmonde": 7732,
      "wine": 7733,
      "Ġdemerara": 7734,
      "juice": 7735,
      "Ġpicc": 7736,
      "Ġgalang": 7737,
      "Ġraised": 7738,
      "Ġappropri": 7739,
      "Ġbeau": 7740,
      "Ġimmerse": 7741,
      "Ġsaucer": 7742,
      "Ġtoasting": 7743,
      "Ġmues": 7744,
      "Ġoverwork": 7745,
      "thin": 7746,
      "Ġpointed": 7747,
      "Ġwont": 7748,
      "Ã®che": 7749,
      "ribut": 7750,
      "Ġshoo": 7751,
      "sail": 7752,
      "ĠfraÃ®che": 7753,
      "together": 7754,
      "em": 7755,
      "rabi": 7756,
      "gelic": 7757,
      "Ġband": 7758,
      "Ġmuesli": 7759,
      "ska": 7760,
      "Ġamaretti": 7761,
      "Ġgrinding": 7762,
      "Ġtumeric": 7763,
      "hal": 7764,
      "soy": 7765,
      "Ġbened": 7766,
      "bert": 7767,
      "Ġseas": 7768,
      "Ġovercrow": 7769,
      "Ġchopsticks": 7770,
      "Ġpavlo": 7771,
      "orating": 7772,
      "Ġbias": 7773,
      "Ġfaste": 7774,
      "Ġsitting": 7775,
      "combine": 7776,
      "Ġcalzones": 7777,
      "Ġfifteen": 7778,
      "market": 7779,
      "fryer": 7780,
      "Ġbrandied": 7781,
      "'.": 7782,
      "Ġiii": 7783,
      "melted": 7784,
      "Ġlargest": 7785,
      "Ġms": 7786,
      "process": 7787,
      "Ġmesquite": 7788,
      "ville": 7789,
      "Ġpac": 7790,
      "Ġmak": 7791,
      "Ġhomestyle": 7792,
      "Ġscott": 7793,
      "Ġinstruction": 7794,
      "Ġmaz": 7795,
      "Ġeleph": 7796,
      "****": 7797,
      "Ġbreadstick": 7798,
      "Ġvickys": 7799,
      "wick": 7800,
      "cto": 7801,
      "Ġfric": 7802,
      "Ġbeurre": 7803,
      "Ġ51": 7804,
      "Ġswirls": 7805,
      "Ġdrun": 7806,
      "Ġlittleneck": 7807,
      "bowl": 7808,
      "Ġdin": 7809,
      "oyu": 7810,
      "Ġfoie": 7811,
      "Ġlyche": 7812,
      "Ġdilly": 7813,
      "Ġwassail": 7814,
      "alfa": 7815,
      "pound": 7816,
      "Ġflap": 7817,
      "Ġpurpo": 7818,
      "uckle": 7819,
      "Ġdaiquiri": 7820,
      "lier": 7821,
      "new": 7822,
      "resist": 7823,
      "Ġbenedict": 7824,
      "spe": 7825,
      "Ġrol": 7826,
      "Ġherbes": 7827,
      "Ġdesserts": 7828,
      "bird": 7829,
      "mings": 7830,
      "ppo": 7831,
      "Ġflowerets": 7832,
      ".-": 7833,
      "hour": 7834,
      "Ġvir": 7835,
      "oza": 7836,
      "Ġeliminate": 7837,
      "Ġreason": 7838,
      "65": 7839,
      "vanilla": 7840,
      "Ġaff": 7841,
      "Ġdam": 7842,
      "Ġcardamon": 7843,
      "Ġelephant": 7844,
      "Ġspeedy": 7845,
      "Ġtexa": 7846,
      "Ġmayonaise": 7847,
      "yogurt": 7848,
      "Ġmoo": 7849,
      "Ġpatting": 7850,
      "Ġmanufacturers": 7851,
      "Ġcollards": 7852,
      "into": 7853,
      "Ġtrimmings": 7854,
      "Ġalfalfa": 7855,
      "Ġmessy": 7856,
      "arti": 7857,
      "Ġcheerio": 7858,
      "Ġnib": 7859,
      "Ġcondiment": 7860,
      "gall": 7861,
      "tur": 7862,
      "saus": 7863,
      "bell": 7864,
      "Ġ{": 7865,
      "Ġshoyu": 7866,
      "Ġflourless": 7867,
      "Ġpitted": 7868,
      "Ġlotus": 7869,
      "Ġcotton": 7870,
      "Ġgala": 7871,
      "Ġsalata": 7872,
      "Ġsquish": 7873,
      "Ġlunche": 7874,
      "Ġpatch": 7875,
      "Ġcolouring": 7876,
      "Ġcalls": 7877,
      "Ġripened": 7878,
      "stack": 7879,
      ",\"": 7880,
      "Ġtentac": 7881,
      "fil": 7882,
      "Ġ52": 7883,
      "igrain": 7884,
      "Ġpaul": 7885,
      "Ġ:).": 7886,
      "Ġvarious": 7887,
      "Ġkrispie": 7888,
      "Ġcertain": 7889,
      "fir": 7890,
      "80": 7891,
      "Ġbing": 7892,
      "Ġdol": 7893,
      "170": 7894,
      "itzel": 7895,
      "Ġbruns": 7896,
      "Ġfriends": 7897,
      "Ġmultigrain": 7898,
      "zes": 7899,
      "Ġsmoother": 7900,
      "Ġmonkfish": 7901,
      "Ġwarming": 7902,
      "Ġdropping": 7903,
      "Ġinterior": 7904,
      "core": 7905,
      "clun": 7906,
      "Ġsorrel": 7907,
      "utter": 7908,
      "shrimp": 7909,
      "Ġpreheating": 7910,
      "Ġcontact": 7911,
      "Ġcaution": 7912,
      "Ġsle": 7913,
      "Ġpreven": 7914,
      "Ġhemp": 7915,
      "ground": 7916,
      "Ġhusband": 7917,
      "Ġur": 7918,
      "Ġdippers": 7919,
      "Ġthats": 7920,
      "Ġguaj": 7921,
      "Ġfruited": 7922,
      "Ġschool": 7923,
      "Ġmich": 7924,
      "gallon": 7925,
      "Ġcornich": 7926,
      "Ġmesclun": 7927,
      "dee": 7928,
      "Ġmorels": 7929,
      "Ġsupermarket": 7930,
      "Ġmellow": 7931,
      "Ġglor": 7932,
      "Ġfettuccini": 7933,
      "Ġabsorbs": 7934,
      "Ġgalangal": 7935,
      "andy": 7936,
      "Ġjigger": 7937,
      "Ġrecon": 7938,
      "Ġinverted": 7939,
      "Ġsundaes": 7940,
      "Ġpiccata": 7941,
      "Ġappetit": 7942,
      "Ġgyoza": 7943,
      "Ġmontreal": 7944,
      "Ġpurposes": 7945,
      "van": 7946,
      "Ġisra": 7947,
      "Ġluncheon": 7948,
      "Ġdue": 7949,
      "Ġsuccess": 7950,
      "Ġpasty": 7951,
      "saute": 7952,
      "Ġbonbon": 7953,
      "Ġajar": 7954,
      "Ġlikely": 7955,
      ".(": 7956,
      "Ġhotter": 7957,
      "Ġpulver": 7958,
      "Ġaccompany": 7959,
      "Ġrite": 7960,
      "Ġverts": 7961,
      "Ġpiment": 7962,
      "faced": 7963,
      "Ġblint": 7964,
      "lie": 7965,
      "Ġdampened": 7966,
      "rd": 7967,
      "Ġworked": 7968,
      "Ġappearance": 7969,
      "Ġpinwheel": 7970,
      "Ġced": 7971,
      "otash": 7972,
      "Ġhis": 7973,
      "Ġshakes": 7974,
      "sho": 7975,
      "Ġgallons": 7976,
      "Ġjess": 7977,
      "Ġinspired": 7978,
      "Ġmojo": 7979,
      "Ġdribble": 7980,
      "Ġbrunswick": 7981,
      "Ġsens": 7982,
      "Ġparma": 7983,
      "Ġwoody": 7984,
      "Ġdaily": 7985,
      "Ġstromb": 7986,
      "Ġtrace": 7987,
      "eyes": 7988,
      "quarter": 7989,
      "ote": 7990,
      "Ġbuc": 7991,
      "Ġpb": 7992,
      "muffin": 7993,
      "Ġchocol": 7994,
      "Ġdunk": 7995,
      "Ġsuccotash": 7996,
      "Ġgher": 7997,
      "Ġtech": 7998,
      "Ġsuitable": 7999,
      "Ġpool": 8000,
      "Ġwhisky": 8001,
      "Ġavac": 8002,
      "bought": 8003,
      "Ġokara": 8004,
      "Ġhavarti": 8005,
      "Ġtik": 8006,
      "Ġahi": 8007,
      "Ġnana": 8008,
      "ields": 8009,
      "Ġsmells": 8010,
      "Ġsaved": 8011,
      "Ġlinda": 8012,
      "Ġmadele": 8013,
      "Ġflameproof": 8014,
      "Ġpierogi": 8015,
      "Ġ57": 8016,
      "Ġcompact": 8017,
      "Ġtack": 8018,
      "Â°),": 8019,
      "Ġcrowding": 8020,
      "Ġideal": 8021,
      "Ġlocal": 8022,
      "Ġmicrowaved": 8023,
      "sy": 8024,
      "Ġcrisply": 8025,
      "Ġgeorg": 8026,
      "Ġyak": 8027,
      "Ġslather": 8028,
      "Ġfiltered": 8029,
      "Ġjen": 8030,
      "Ġreconstit": 8031,
      "lit": 8032,
      "banese": 8033,
      "Ġvirg": 8034,
      "anas": 8035,
      "Ġkohl": 8036,
      "Ġcoarsley": 8037,
      "Ġroulade": 8038,
      "Ġgochujang": 8039,
      "ision": 8040,
      "Ġlager": 8041,
      "Ġpoppers": 8042,
      "Ġsnugly": 8043,
      "Ġhue": 8044,
      "sausage": 8045,
      "rami": 8046,
      "ameled": 8047,
      "ax": 8048,
      "count": 8049,
      "Ġage": 8050,
      "straw": 8051,
      "inium": 8052,
      "Ġjohnny": 8053,
      "Ġisraeli": 8054,
      "ude": 8055,
      "ilt": 8056,
      "garine": 8057,
      "oki": 8058,
      "Ġchipotles": 8059,
      "Ġunused": 8060,
      "Ġapproximate": 8061,
      "Ġfrond": 8062,
      "Ġchou": 8063,
      "oph": 8064,
      "Ġdecorator": 8065,
      "ouble": 8066,
      "Ġume": 8067,
      "rance": 8068,
      "Ġdecadent": 8069,
      "Ġmang": 8070,
      "wered": 8071,
      "Ġshimmers": 8072,
      "Ġsuggestions": 8073,
      "teg": 8074,
      "Ġslash": 8075,
      "ifter": 8076,
      "Ġstromboli": 8077,
      "aire": 8078,
      "Ġcontrol": 8079,
      "Ġfriendship": 8080,
      "Ġprevious": 8081,
      "Ġbab": 8082,
      "Ġcartil": 8083,
      "Ġries": 8084,
      "Ġemulsify": 8085,
      "Ġbod": 8086,
      "italian": 8087,
      "afing": 8088,
      "watch": 8089,
      "ĠÂ°": 8090,
      "Ġvess": 8091,
      "Ġcartilage": 8092,
      "Ġsara": 8093,
      "Ġsha": 8094,
      "Ġske": 8095,
      "Ġcores": 8096,
      "Ġruth": 8097,
      "Ġranche": 8098,
      "Ġimperial": 8099,
      "Ġcedar": 8100,
      "stand": 8101,
      "Ġpastrami": 8102,
      "Ġearlier": 8103,
      "Ġvalentine": 8104,
      "Ġzipper": 8105,
      "Ġer": 8106,
      "Ġchafing": 8107,
      "Ġsack": 8108,
      "Ġcasseroles": 8109,
      "Ġhandled": 8110,
      "Ġrev": 8111,
      "Ġguajillo": 8112,
      "ashi": 8113,
      "alco": 8114,
      "Ġtun": 8115,
      "ram": 8116,
      "Ġetou": 8117,
      "Ġfermented": 8118,
      "atelli": 8119,
      "Ġserv": 8120,
      "Ġname": 8121,
      "Ġcanapes": 8122,
      "Ġcrispix": 8123,
      "Ġboursin": 8124,
      "Ġmargaritas": 8125,
      "Ġsandy": 8126,
      "Ġnugget": 8127,
      "Ġbosc": 8128,
      "Ġreale": 8129,
      "Ġsmokey": 8130,
      "Ġshows": 8131,
      "deep": 8132,
      "Ġangla": 8133,
      "Ġwashing": 8134,
      "Ġparticular": 8135,
      "Ġbeefsteak": 8136,
      "Ġwww": 8137,
      "seared": 8138,
      "Ġroughy": 8139,
      "Ġclementine": 8140,
      "carrot": 8141,
      "Ġkinds": 8142,
      "Ġdilled": 8143,
      "Ġfres": 8144,
      "Ġbruised": 8145,
      "Ġsubstituting": 8146,
      "Ġriesling": 8147,
      "asure": 8148,
      "Ġchay": 8149,
      "rubbed": 8150,
      "Ġjalepeno": 8151,
      "Ġ53": 8152,
      "Ġvac": 8153,
      "wegian": 8154,
      "imeji": 8155,
      "Ġeast": 8156,
      "Ġcannoli": 8157,
      "Ġhashbrown": 8158,
      "Ġneatly": 8159,
      "Ġvirginia": 8160,
      "tw": 8161,
      "Ġgoodness": 8162,
      "Ġratio": 8163,
      "Ġbullion": 8164,
      "dock": 8165,
      "Ġthumbprint": 8166,
      "diabetic": 8167,
      "vine": 8168,
      "Ġcampfire": 8169,
      "Ġchocolat": 8170,
      "je": 8171,
      "oug": 8172,
      "Ġwhil": 8173,
      "Ġcrackling": 8174,
      "Ġpepitas": 8175,
      "Ġrealemon": 8176,
      "Ġhappen": 8177,
      "pu": 8178,
      "ppe": 8179,
      "Ġpasilla": 8180,
      "Ġflames": 8181,
      "Ġstands": 8182,
      "Ġmilnot": 8183,
      "Ġchews": 8184,
      "ancy": 8185,
      "Ġsaid": 8186,
      "sca": 8187,
      "Ġinserting": 8188,
      "Ġbella": 8189,
      "Ġheight": 8190,
      "bernet": 8191,
      "Ġpaula": 8192,
      "Ġfloating": 8193,
      "Ġaluminium": 8194,
      "sel": 8195,
      "slow": 8196,
      "Ġdisappears": 8197,
      "Ġcourgette": 8198,
      "Ġpantry": 8199,
      "Ġconsist": 8200,
      "Ġmut": 8201,
      "Ġconver": 8202,
      "Ġalba": 8203,
      "stock": 8204,
      "Ġkohlrabi": 8205,
      "Ġanglaise": 8206,
      "Ġups": 8207,
      "iva": 8208,
      "Ġborsch": 8209,
      "Ġdeath": 8210,
      "Ġcarbs": 8211,
      "Ġmarrow": 8212,
      "cture": 8213,
      "Ġawhile": 8214,
      "Ġeggless": 8215,
      "Ġhorizon": 8216,
      "Ġshimeji": 8217,
      "Ġenameled": 8218,
      "Ġdifference": 8219,
      "Ġimported": 8220,
      "Ġrotary": 8221,
      "chiote": 8222,
      "ophane": 8223,
      "chili": 8224,
      "Ġmike": 8225,
      "Ġrand": 8226,
      "Ġfact": 8227,
      "Ġ600": 8228,
      "Ġshiit": 8229,
      "dder": 8230,
      "Ġ54": 8231,
      "Ġclos": 8232,
      "pari": 8233,
      "middle": 8234,
      "Ġnapole": 8235,
      "cas": 8236,
      "dog": 8237,
      "Ġoo": 8238,
      "Ġincred": 8239,
      "biscus": 8240,
      "Ġsmoothies": 8241,
      "Ġbusy": 8242,
      "Ġignite": 8243,
      "Ġachiote": 8244,
      "Ġcheap": 8245,
      "great": 8246,
      "Ġmexic": 8247,
      "Ġsnickers": 8248,
      "cil": 8249,
      "rh": 8250,
      "Ġdivided": 8251,
      "Ġcerto": 8252,
      "Ġstate": 8253,
      "soup": 8254,
      "Ġtext": 8255,
      "Ġslc": 8256,
      "Ġbrushed": 8257,
      "Ġcabernet": 8258,
      "Ġpern": 8259,
      "Ġhumming": 8260,
      "Ġskewered": 8261,
      "oor": 8262,
      "adillo": 8263,
      "300": 8264,
      "Ġfoams": 8265,
      "Ġappropriate": 8266,
      "Ġveggy": 8267,
      "125": 8268,
      "Ġbree": 8269,
      "Ġstren": 8270,
      "Ġaltogether": 8271,
      "uro": 8272,
      "Ġincorporating": 8273,
      "Ġblow": 8274,
      "120": 8275,
      "parm": 8276,
      "Ġforgot": 8277,
      "Ġcellophane": 8278,
      "ingred": 8279,
      "irard": 8280,
      "Ġcord": 8281,
      "quake": 8282,
      "Ġburdock": 8283,
      "Ġwhilst": 8284,
      "Ġflavoured": 8285,
      "Ġstacked": 8286,
      "wich": 8287,
      "uca": 8288,
      "fourths": 8289,
      "Ġwhether": 8290,
      "Ġfits": 8291,
      "tablespoon": 8292,
      "Ġdeen": 8293,
      "Ġtorta": 8294,
      "Ġgem": 8295,
      "Ġuniformly": 8296,
      "Ġsugarless": 8297,
      "ellini": 8298,
      "Ġglazing": 8299,
      "gged": 8300,
      "ambord": 8301,
      "browned": 8302,
      "umpt": 8303,
      "allel": 8304,
      "Ġstrength": 8305,
      "Ġtas": 8306,
      "Ġkin": 8307,
      "esean": 8308,
      "istent": 8309,
      "Ġearthquake": 8310,
      "pasta": 8311,
      "icy": 8312,
      "Ġcrushing": 8313,
      "Ġhummingbird": 8314,
      "Ġchap": 8315,
      "Ġwells": 8316,
      "Ġprogre": 8317,
      "Ġenoki": 8318,
      "Ġspeck": 8319,
      "aubergine": 8320,
      "Ġdietary": 8321,
      "Ġlollipop": 8322,
      "gasse": 8323,
      "Ġfoster": 8324,
      "Ġbench": 8325,
      "Ġprevents": 8326,
      "Ġdemi": 8327,
      "Ġbackbone": 8328,
      "Ġbragg": 8329,
      "enough": 8330,
      "Ġliquef": 8331,
      "Ġresidual": 8332,
      "Ġschnitzel": 8333,
      "Ġpace": 8334,
      "Ġshorter": 8335,
      "Ġblank": 8336,
      "Ġprovencal": 8337,
      "Ġlace": 8338,
      "Ġ115": 8339,
      "Ġmillionaire": 8340,
      "Ġpch": 8341,
      "Ġfirmer": 8342,
      "Ġabsolutely": 8343,
      "Ġparallel": 8344,
      "Ġdashes": 8345,
      "Ġchambord": 8346,
      "aux": 8347,
      "cilantro": 8348,
      "fout": 8349,
      "Ġliving": 8350,
      "Ġcardboard": 8351,
      "Ġpavlova": 8352,
      "zzle": 8353,
      "Ġcoloured": 8354,
      "Ġtapping": 8355,
      "tly": 8356,
      "Ġbush": 8357,
      "Ġfloats": 8358,
      "Ġclinging": 8359,
      "infused": 8360,
      "aku": 8361,
      "Ġparmesean": 8362,
      "Ġacting": 8363,
      "Ġdaniel": 8364,
      "Ġcalzone": 8365,
      "sting": 8366,
      "Ġrefrigeration": 8367,
      "Ġtarte": 8368,
      "Ġbakery": 8369,
      "mac": 8370,
      "Ġburns": 8371,
      "Ġboxes": 8372,
      "Ġaleppo": 8373,
      "Ġfasten": 8374,
      "fix": 8375,
      "small": 8376,
      "xing": 8377,
      "Ġcity": 8378,
      "oma": 8379,
      "Ġpigs": 8380,
      "Ġmandolin": 8381,
      "Ġcampari": 8382,
      "oulet": 8383,
      "Ġseparates": 8384,
      "Ġhuge": 8385,
      "itter": 8386,
      "Ġtonic": 8387,
      "jell": 8388,
      "Ġshish": 8389,
      "Ġclafout": 8390,
      "Ġdampen": 8391,
      "Ġmaldon": 8392,
      "Ġworchestershire": 8393,
      "Ġvessel": 8394,
      "Ġvan": 8395,
      "Ġbrickle": 8396,
      "Ġrelatively": 8397,
      "Ġkh": 8398,
      "250": 8399,
      "Ġbunny": 8400,
      "Ġhibiscus": 8401,
      "---": 8402,
      "Ġpaso": 8403,
      "peg": 8404,
      "Ġcollect": 8405,
      "alcoholic": 8406,
      "luck": 8407,
      "chet": 8408,
      "Ġrecip": 8409,
      "irardelli": 8410,
      "Ġsnaps": 8411,
      "hell": 8412,
      "Ġtempered": 8413,
      "lor": 8414,
      "oise": 8415,
      "Ġcrud": 8416,
      "Ġcrimini": 8417,
      "Ġgho": 8418,
      "ppin": 8419,
      "Ġgod": 8420,
      "Ġill": 8421,
      "Ġol": 8422,
      "âĢĿ": 8423,
      "Ġreheating": 8424,
      "Ġallowed": 8425,
      "Ġhaystack": 8426,
      "Ġsid": 8427,
      "Ġlebanese": 8428,
      "olitan": 8429,
      "pear": 8430,
      "Ġtechni": 8431,
      "Ġsaw": 8432,
      "Ġprebaked": 8433,
      "Ġalt": 8434,
      "Ġbrined": 8435,
      "Ġbrazilian": 8436,
      "Ġghirardelli": 8437,
      "Ġconsistent": 8438,
      "selves": 8439,
      "Ġholder": 8440,
      "Ġshoepeg": 8441,
      "Ġreynolds": 8442,
      "take": 8443,
      "Ġlengthways": 8444,
      "hy": 8445,
      "Ġmiz": 8446,
      "Ġcomments": 8447,
      "Ġmexicorn": 8448,
      "olo": 8449,
      "Ġnests": 8450,
      "Ġauber": 8451,
      "Ġcure": 8452,
      "cca": 8453,
      "oeuvres": 8454,
      "ddess": 8455,
      "\"-": 8456,
      "eral": 8457,
      "Ġnorwegian": 8458,
      "Ġsamos": 8459,
      "Ġmazola": 8460,
      "ctose": 8461,
      "Ġtacky": 8462,
      "Ġfrangelic": 8463,
      "Ġspill": 8464,
      "cool": 8465,
      "piece": 8466,
      "bor": 8467,
      "iere": 8468,
      "Ġsoftly": 8469,
      "Ġhaven": 8470,
      "Ġpak": 8471,
      "Ġcanes": 8472,
      "Ġgoddess": 8473,
      "Ã¨re": 8474,
      "Ġhorizontal": 8475,
      "aa": 8476,
      "Ġfritter": 8477,
      "Ġsnowballs": 8478,
      "Ġ365": 8479,
      "Ġalaska": 8480,
      "Ġjean": 8481,
      "Ġghost": 8482,
      "Ġabura": 8483,
      "Ġproceeding": 8484,
      "Ġtikka": 8485,
      "Ġpubl": 8486,
      "Ġtoweling": 8487,
      "Ġtends": 8488,
      "Ġspraying": 8489,
      "Ġclover": 8490,
      "opened": 8491,
      "rif": 8492,
      "Ġpowders": 8493,
      "Ġlidded": 8494,
      "Ġkuchen": 8495,
      "Ġhobo": 8496,
      "sliced": 8497,
      "Ġfac": 8498,
      "Ġdav": 8499,
      "Ġburr": 8500,
      "pork": 8501,
      "Ġskor": 8502,
      "spread": 8503,
      "Ġwis": 8504,
      "Ġsem": 8505,
      "Ġtiger": 8506,
      "Ġchiku": 8507,
      "iang": 8508,
      "Ġreturns": 8509,
      "jool": 8510,
      "Ġdrunken": 8511,
      "Ġmoz": 8512,
      "these": 8513,
      "Ġavacado": 8514,
      "Ġson": 8515,
      "Ġhat": 8516,
      "zuki": 8517,
      "Ġvege": 8518,
      "Ġdepression": 8519,
      "boshi": 8520,
      "Ġtartlet": 8521,
      "Ġbucket": 8522,
      "Ġvien": 8523,
      "Ġpennies": 8524,
      "Ġslashes": 8525,
      "Ġfrankfurter": 8526,
      "Ġview": 8527,
      "Ġetouffee": 8528,
      "bru": 8529,
      "Ġdew": 8530,
      "Ġchicory": 8531,
      "Ġalbacore": 8532,
      "pint": 8533,
      "ulate": 8534,
      "Ġanywhere": 8535,
      "Ġ56": 8536,
      "Ġfresca": 8537,
      "Ġpacking": 8538,
      "Ġcassoulet": 8539,
      "dill": 8540,
      "stem": 8541,
      "estring": 8542,
      "Ġcurdled": 8543,
      "bab": 8544,
      "Ġmounding": 8545,
      "Ġproduc": 8546,
      "du": 8547,
      "Ġliter": 8548,
      "Ġshiitakes": 8549,
      "Ġaubergin": 8550,
      "Ġvein": 8551,
      "Ġfatty": 8552,
      "Ġtaro": 8553,
      "Ġbecoming": 8554,
      "ĠâĢľ": 8555,
      "Ġmaximum": 8556,
      "Ġshaoxing": 8557,
      "Ġclosest": 8558,
      "ĠĠ": 8559,
      "Ġpotatoe": 8560,
      "Ġlagasse": 8561,
      "hor": 8562,
      "Ġcombo": 8563,
      "cardi": 8564,
      "sprinkle": 8565,
      "Ġstemmed": 8566,
      "Ġmajor": 8567,
      "Ġsex": 8568,
      "Ġthins": 8569,
      "Ġovens": 8570,
      "Ġdistribut": 8571,
      "Ġamaranth": 8572,
      "Ġrasher": 8573,
      "Ġdecorations": 8574,
      "best": 8575,
      "Ġsavour": 8576,
      "Ġschnapps": 8577,
      "Ġscone": 8578,
      "Ġchimichang": 8579,
      "Ġtostit": 8580,
      "modate": 8581,
      "gerator": 8582,
      "Ġemulsion": 8583,
      "Ġzippy": 8584,
      "Ġthemselves": 8585,
      "Ġearl": 8586,
      "Ġyorkshire": 8587,
      "Ġresistance": 8588,
      "skin": 8589,
      "Ġcab": 8590,
      "Ġcutouts": 8591,
      "parmesan": 8592,
      "Ġblanket": 8593,
      "spicy": 8594,
      "Ġpublished": 8595,
      "Ġmaria": 8596,
      "Ġtiming": 8597,
      "Ġunopened": 8598,
      "Ġpotluck": 8599,
      "Ġask": 8600,
      "deg": 8601,
      "Ġtigh": 8602,
      "Ġstrand": 8603,
      "Ġcollins": 8604,
      "Ġchikuwa": 8605,
      "redded": 8606,
      "Ġmaid": 8607,
      "Ġchance": 8608,
      "Ġstron": 8609,
      "igra": 8610,
      "Ġpreviously": 8611,
      "Ġcompress": 8612,
      "Ġmedjool": 8613,
      "Ġelement": 8614,
      "Ġkumquats": 8615,
      "oven": 8616,
      "Ġdet": 8617,
      "Ġexam": 8618,
      "usually": 8619,
      "Ġapplewood": 8620,
      "Ġloc": 8621,
      "Ġqts": 8622,
      "chere": 8623,
      "Ġbliss": 8624,
      "Ġshoestring": 8625,
      "tega": 8626,
      "raine": 8627,
      "zanella": 8628,
      "Ġpoppyseed": 8629,
      "Ġmatzoh": 8630,
      "Ġredd": 8631,
      "Ġ230": 8632,
      "Ġpernod": 8633,
      "Ġmerlot": 8634,
      "fin": 8635,
      "oiled": 8636,
      "aca": 8637,
      "Ġroula": 8638,
      "Ġstronger": 8639,
      "Ġfrankfurters": 8640,
      "Ġporcupine": 8641,
      "Ġlifted": 8642,
      "Ġhanout": 8643,
      "Ġbend": 8644,
      "rim": 8645,
      "Ġcreaming": 8646,
      "Ġareas": 8647,
      "Ġholly": 8648,
      "Ġdefrosted": 8649,
      "ining": 8650,
      "Ġtool": 8651,
      "Ġwellington": 8652,
      "Ġfoolproof": 8653,
      "Ġfrangelico": 8654,
      "Ġbes": 8655,
      "Ġbacardi": 8656,
      "Ġlav": 8657,
      "Ġcoin": 8658,
      "Ġscottish": 8659,
      "Ġbonbons": 8660,
      "reserving": 8661,
      "Ġgut": 8662,
      "Ġcukes": 8663,
      "whisk": 8664,
      "Ġsatis": 8665,
      "Ġsweetcorn": 8666,
      "degrees": 8667,
      "Ġkan": 8668,
      "Ġstab": 8669,
      "Ġseasonal": 8670,
      "Ġeyeball": 8671,
      "Ġgeorgia": 8672,
      "mouth": 8673,
      "Ġdim": 8674,
      "Ġknot": 8675,
      "Ġbeautifully": 8676,
      "Ġmaxwell": 8677,
      "Ġglow": 8678,
      "cels": 8679,
      "cheddar": 8680,
      "Ġscored": 8681,
      "urope": 8682,
      "Ġsatin": 8683,
      "amer": 8684,
      "Ġguess": 8685,
      "Ġdecide": 8686,
      "Ġlorraine": 8687,
      "opp": 8688,
      "yond": 8689,
      "Ġdrips": 8690,
      "also": 8691,
      "Ġjulius": 8692,
      "Ġfag": 8693,
      "Ġsold": 8694,
      "Ġcriss": 8695,
      "Ġsterile": 8696,
      "cold": 8697,
      "Ġjewish": 8698,
      "center": 8699,
      "Ġribe": 8700,
      "Ġgeneral": 8701,
      "Ġslee": 8702,
      "Ġgreaseproof": 8703,
      "Ġstretching": 8704,
      "Ġbeyond": 8705,
      "Ġpanzanella": 8706,
      "Ġbac": 8707,
      "Ġsen": 8708,
      "Ġburrata": 8709,
      "Ġbison": 8710,
      "wrap": 8711,
      "Ġinde": 8712,
      "Ġina": 8713,
      "Ġgrow": 8714,
      "Ġcreated": 8715,
      "care": 8716,
      "rsc": 8717,
      "Ġbee": 8718,
      "Ġjessie": 8719,
      "Ġrefrigerating": 8720,
      "Ġwak": 8721,
      "Ġdital": 8722,
      "Ġbistro": 8723,
      "shape": 8724,
      "Ġknown": 8725,
      "Ġcarmelized": 8726,
      "Ġovercrowd": 8727,
      "uum": 8728,
      "atsu": 8729,
      "Ġrefer": 8730,
      "Ġincreasing": 8731,
      "look": 8732,
      "onc": 8733,
      "Ġsopa": 8734,
      "Ġquantities": 8735,
      "Ġexperiment": 8736,
      "pea": 8737,
      "Ġsavoury": 8738,
      "naise": 8739,
      "Ġboull": 8740,
      "onesian": 8741,
      "Ġbrazil": 8742,
      "nish": 8743,
      "vinegar": 8744,
      "Ġverb": 8745,
      "Ġborscht": 8746,
      "tin": 8747,
      "ingle": 8748,
      "Ġsanding": 8749,
      "Ġendives": 8750,
      "Ġoverflow": 8751,
      "sey": 8752,
      "Ġwashington": 8753,
      "Ġsterilize": 8754,
      "Ġkumquat": 8755,
      "Ġali": 8756,
      "Ġlaying": 8757,
      "Ġcrackle": 8758,
      "Ġroni": 8759,
      "Ġshade": 8760,
      "gerated": 8761,
      "Ġlbs": 8762,
      "Ġortega": 8763,
      "Ġproble": 8764,
      "Ġcorriander": 8765,
      "gram": 8766,
      "strawberry": 8767,
      "Ġmusco": 8768,
      "dairy": 8769,
      "Ġrinsing": 8770,
      "geon": 8771,
      "Ġmorel": 8772,
      "Ġhappens": 8773,
      "Ġpete": 8774,
      "Ġblonde": 8775,
      "hard": 8776,
      "Ġpand": 8777,
      "ients": 8778,
      "range": 8779,
      "Ġcrispies": 8780,
      "Ġwholemeal": 8781,
      "Ġflorida": 8782,
      "aky": 8783,
      "Ġblanco": 8784,
      "Ġshop": 8785,
      "Ġston": 8786,
      "Ġgruy": 8787,
      "square": 8788,
      "Ġdecorated": 8789,
      "Ġscalopp": 8790,
      "pared": 8791,
      "Ġeurope": 8792,
      "Ġgrown": 8793,
      "Ġrandom": 8794,
      "itude": 8795,
      "Ġbrats": 8796,
      "Ġrelax": 8797,
      "Ġcharlot": 8798,
      "Ġtruss": 8799,
      "Ġideally": 8800,
      "Ġveins": 8801,
      "Ġpepita": 8802,
      "Ġverbena": 8803,
      "taste": 8804,
      "Ġprego": 8805,
      "rought": 8806,
      "whole": 8807,
      "Ġwakame": 8808,
      "cit": 8809,
      "Ġcute": 8810,
      "Ġroasts": 8811,
      "thyme": 8812,
      "Ġmacarons": 8813,
      "Ġchachere": 8814,
      "~~": 8815,
      "ripe": 8816,
      "ocado": 8817,
      "iked": 8818,
      "Ġtextured": 8819,
      "uyu": 8820,
      "iants": 8821,
      "cap": 8822,
      "toasted": 8823,
      "Ġshock": 8824,
      "Ġdefinitely": 8825,
      "mont": 8826,
      "Ġparboiled": 8827,
      "Ġpotatos": 8828,
      "Ġharicots": 8829,
      "Ġboullion": 8830,
      "ades": 8831,
      "Ġparcels": 8832,
      "yields": 8833,
      "Ġkefir": 8834,
      "Ġlate": 8835,
      "Ġvacuum": 8836,
      "Ġcost": 8837,
      "oila": 8838,
      "Ġlikes": 8839,
      "Ġbreeze": 8840,
      "74": 8841,
      "esca": 8842,
      "Ġtep": 8843,
      "Ġmicrowaving": 8844,
      "Ġjiggly": 8845,
      "Ġclaw": 8846,
      "Ġsifter": 8847,
      "Ġwalk": 8848,
      "aver": 8849,
      "knead": 8850,
      "Ġtris": 8851,
      "Ġflattening": 8852,
      "Ġfuji": 8853,
      "Ġtrust": 8854,
      "Ġnancy": 8855,
      "ingredient": 8856,
      "Ġaspic": 8857,
      "Ġtown": 8858,
      "Ġmsg": 8859,
      "ctus": 8860,
      "Ġcobb": 8861,
      "Ġcheeseburgers": 8862,
      "Ġbreaks": 8863,
      "Ġviole": 8864,
      "overnight": 8865,
      "19": 8866,
      "cuc": 8867,
      "oute": 8868,
      "Ġporter": 8869,
      "infandel": 8870,
      "Ġchanterelle": 8871,
      "roni": 8872,
      "Ġornam": 8873,
      "Ġbases": 8874,
      "Ġdevour": 8875,
      "Ġgeorge": 8876,
      "oatmeal": 8877,
      "dipped": 8878,
      "Ġherbal": 8879,
      "rad": 8880,
      "Ġgenerally": 8881,
      "entsuyu": 8882,
      "Ġluc": 8883,
      "Ġcraisin": 8884,
      "Ġblind": 8885,
      "Ġsouffl": 8886,
      "Ġexample": 8887,
      "Ġsig": 8888,
      "ssaka": 8889,
      "Ġfragrance": 8890,
      "athy": 8891,
      "Ġmoulds": 8892,
      "bri": 8893,
      "speed": 8894,
      "Ġquik": 8895,
      "Ġhighly": 8896,
      "Ġcrumbling": 8897,
      "Ġmarzano": 8898,
      "Ġtir": 8899,
      "Ġsue": 8900,
      "elled": 8901,
      "Ġconverted": 8902,
      "Ġlatin": 8903,
      "Ġevent": 8904,
      "Ġblu": 8905,
      "Ġdivine": 8906,
      "Ġlover": 8907,
      "Ġvoila": 8908,
      "Ġmunch": 8909,
      "ttini": 8910,
      "Ġthinned": 8911,
      "Ġvertical": 8912,
      "mexican": 8913,
      "Ġeighths": 8914,
      "Ġbucatini": 8915,
      "Ġrequires": 8916,
      "Ġpacific": 8917,
      "Ġuneven": 8918,
      "Ġroti": 8919,
      "Ġbloom": 8920,
      "Ġboc": 8921,
      "Ġblog": 8922,
      "Ġramps": 8923,
      "izing": 8924,
      "Ġtartare": 8925,
      "Ġmeasurements": 8926,
      "cucumber": 8927,
      "Ġchurch": 8928,
      "atto": 8929,
      "Ġnible": 8930,
      "pect": 8931,
      "Ġaccompanied": 8932,
      "Ġutens": 8933,
      "itionally": 8934,
      "Ġfrog": 8935,
      "Ġpeppery": 8936,
      "Ġ58": 8937,
      "Ġcreams": 8938,
      "Ġrob": 8939,
      "Ġpumpkins": 8940,
      "Ġinverting": 8941,
      "isins": 8942,
      "lyn": 8943,
      "Ġzinfandel": 8944,
      "Ġladleful": 8945,
      "Ġsnowball": 8946,
      "browning": 8947,
      "Ġbrought": 8948,
      "Ġbuckeyes": 8949,
      "paper": 8950,
      "Ġstones": 8951,
      "Ġminus": 8952,
      "Ġpoked": 8953,
      "avocado": 8954,
      "Ġtriscuit": 8955,
      "ental": 8956,
      "soaked": 8957,
      "Ġpiquillo": 8958,
      "Ġconsistancy": 8959,
      "Ġdots": 8960,
      "Ġlush": 8961,
      "Ġlovers": 8962,
      "Ġlightened": 8963,
      "umptious": 8964,
      "ĠgruyÃ¨re": 8965,
      "Ġgaps": 8966,
      "Ġshots": 8967,
      "oles": 8968,
      "Ġditalini": 8969,
      "atas": 8970,
      "Ġcreative": 8971,
      "Ġvinegars": 8972,
      "Ġshirat": 8973,
      "zucchini": 8974,
      "Ġjim": 8975,
      "Ġwiped": 8976,
      "Ġmentsuyu": 8977,
      "Ġflash": 8978,
      "Ġcactus": 8979,
      "Ġscooping": 8980,
      "Ġmoussaka": 8981,
      "mesco": 8982,
      "Ġtaqu": 8983,
      "Ġpaprik": 8984,
      "Ġjuicer": 8985,
      "Ġribeye": 8986,
      "Ġtv": 8987,
      "Ġchopstick": 8988,
      "Ġfresno": 8989,
      "Ġfloury": 8990,
      "Ġvict": 8991,
      "Ġmop": 8992,
      "peach": 8993,
      "ttes": 8994,
      "Ġaccom": 8995,
      "Ġpresent": 8996,
      "Ġrein": 8997,
      "chin": 8998,
      "arded": 8999,
      "Ġtrue": 9000,
      "Ġelderflower": 9001,
      "Ġcalab": 9002,
      "Ġindef": 9003,
      "ald": 9004,
      "thaw": 9005,
      "Ġsummertime": 9006,
      "Ġpay": 9007,
      "ali": 9008,
      "Ġslim": 9009,
      "Ġducks": 9010,
      "Ġfricas": 9011,
      "Ġtepid": 9012,
      "28": 9013,
      "salted": 9014,
      "Ġromesco": 9015,
      "Ġpros": 9016,
      "Ġdrinks": 9017,
      "Ġdisappear": 9018,
      "Ġ1993": 9019,
      "Ġaka": 9020,
      "Ġmicropl": 9021,
      "Ġspecified": 9022,
      "ichever": 9023,
      "vado": 9024,
      "Ġoutsides": 9025,
      "ya": 9026,
      "release": 9027,
      "Ġaccommodate": 9028,
      "haps": 9029,
      "wash": 9030,
      "Ġuni": 9031,
      "ota": 9032,
      "Ġcapellini": 9033,
      "ylvan": 9034,
      "Ġdries": 9035,
      "Ġtenderize": 9036,
      "Ġprotect": 9037,
      "Ġflatbreads": 9038,
      "Ġumeboshi": 9039,
      "Ġunt": 9040,
      "Ġdiscolor": 9041,
      "cuitto": 9042,
      "Ġtechnique": 9043,
      "mango": 9044,
      "Ġpepe": 9045,
      "burn": 9046,
      "vos": 9047,
      "Ġwagon": 9048,
      "Ġexter": 9049,
      "hazel": 9050,
      "sesame": 9051,
      "Ġingrediants": 9052,
      "Ġconne": 9053,
      "Ġbattered": 9054,
      "Ġexcessive": 9055,
      "Ġservice": 9056,
      "Ġara": 9057,
      "ensive": 9058,
      "Ġideas": 9059,
      "Ġscrumptious": 9060,
      "tm": 9061,
      "Ġrisk": 9062,
      "ventional": 9063,
      "Ġcoupe": 9064,
      "carb": 9065,
      "steam": 9066,
      "Ġeve": 9067,
      "Ġperrin": 9068,
      "Ġhatch": 9069,
      "Ġstripped": 9070,
      "Ġswitching": 9071,
      "Ġindentations": 9072,
      "hydr": 9073,
      "Ġeveryday": 9074,
      "Ġdull": 9075,
      "Ġhon": 9076,
      "Ġcanister": 9077,
      "Ġmode": 9078,
      "Ġstripes": 9079,
      "Ġshortly": 9080,
      "Ġoverhanging": 9081,
      "Ġoxtails": 9082,
      "sim": 9083,
      "Ġchoux": 9084,
      "Ġsachet": 9085,
      "Ġleak": 9086,
      "Ġbasin": 9087,
      "Ġhaystacks": 9088,
      "ouli": 9089,
      "amate": 9090,
      "Ġyes": 9091,
      "Ġchipotl": 9092,
      "tanesca": 9093,
      "kka": 9094,
      "Ġnoug": 9095,
      "Ġcreamier": 9096,
      "Ġparsely": 9097,
      "Ġchayote": 9098,
      "Ġshortcut": 9099,
      "Ġposole": 9100,
      "Ġresidue": 9101,
      "Ġmangos": 9102,
      "bby": 9103,
      "lion": 9104,
      "Ġdsh": 9105,
      "Ġputtanesca": 9106,
      "Ġsquir": 9107,
      "Ġacidity": 9108,
      "Ġsultanas": 9109,
      "nets": 9110,
      "Ġmorrow": 9111,
      "ques": 9112,
      "ube": 9113,
      "cured": 9114,
      "Ġimag": 9115,
      "Ġconcentric": 9116,
      "margarine": 9117,
      "braten": 9118,
      "Ġcaponata": 9119,
      "Ġoamc": 9120,
[...]
